<pad>	0
<unk>	0
<s>	0
</s>	0
en	-0
er	-1
▁t	-2
▁d	-3
in	-4
ch	-5
▁a	-6
on	-7
▁th	-8
es	-9
is	-10
un	-11
▁w	-12
it	-13
▁s	-14
at	-15
ie	-16
▁the	-17
or	-18
an	-19
re	-20
ich	-21
▁b	-22
ion	-23
▁o	-24
▁in	-25
▁m	-26
al	-27
▁f	-28
ar	-29
ro	-30
te	-31
▁e	-32
as	-33
le	-34
ent	-35
▁h	-36
▁p	-37
▁an	-38
▁n	-39
▁c	-40
▁un	-41
us	-42
ge	-43
ung	-44
▁of	-45
▁to	-46
▁die	-47
▁der	-48
▁v	-49
▁E	-50
▁be	-51
om	-52
ll	-53
ing	-54
▁I	-55
ur	-56
▁and	-57
▁A	-58
▁und	-59
▁is	-60
ed	-61
ir	-62
ig	-63
st	-64
▁S	-65
▁z	-66
▁M	-67
▁P	-68
▁ein	-69
ra	-70
em	-71
ic	-72
▁g	-73
im	-74
eit	-75
ut	-76
▁B	-77
icht	-78
ies	-79
el	-80
▁D	-81
▁re	-82
ol	-83
id	-84
ation	-85
ter	-86
am	-87
sch	-88
▁T	-89
ten	-90
omm	-91
rop	-92
▁W	-93
▁that	-94
ul	-95
der	-96
il	-97
ve	-98
ber	-99
▁das	-100
▁zu	-101
lich	-102
▁F	-103
hr	-104
den	-105
et	-106
gen	-107
ct	-108
▁K	-109
▁R	-110
isch	-111
▁au	-112
ür	-113
▁V	-114
▁den	-115
▁wh	-116
▁l	-117
▁C	-118
urop	-119
ein	-120
▁for	-121
▁ha	-122
▁G	-123
▁k	-124
▁on	-125
ot	-126
▁H	-127
um	-128
iss	-129
▁wir	-130
ere	-131
ly	-132
res	-133
▁Europ	-134
▁ge	-135
▁U	-136
▁we	-137
ort	-138
ier	-139
▁al	-140
▁im	-141
ff	-142
os	-143
de	-144
▁dies	-145
▁Th	-146
▁so	-147
tr	-148
▁con	-149
ben	-150
ver	-151
ce	-152
▁ver	-153
ommiss	-154
and	-155
▁it	-156
▁von	-157
men	-158
est	-159
▁this	-160
▁für	-161
▁er	-162
ach	-163
▁des	-164
▁ist	-165
▁pro	-166
▁auf	-167
▁Ver	-168
▁as	-169
ommission	-170
▁dass	-171
▁are	-172
ill	-173
ft	-174
▁L	-175
▁Un	-176
kt	-177
ment	-178
ith	-179
ess	-180
ischen	-181
ab	-182
▁nicht	-183
ow	-184
▁In	-185
▁de	-186
▁not	-187
▁with	-188
pp	-189
uld	-190
▁Z	-191
ould	-192
▁ne	-193
ungen	-194
▁have	-195
op	-196
ke	-197
her	-198
▁N	-199
ident	-200
▁als	-201
sp	-202
▁which	-203
▁st	-204
▁Europe	-205
▁wer	-206
la	-207
▁dem	-208
ind	-209
iv	-210
ate	-211
ts	-212
▁eine	-213
▁se	-214
ive	-215
än	-216
oun	-217
▁werden	-218
for	-219
▁es	-220
▁j	-221
▁mit	-222
▁Re	-223
▁St	-224
ament	-225
über	-226
ust	-227
ay	-228
▁Par	-229
end	-230
err	-231
▁-	-232
if	-233
ity	-234
▁le	-235
lie	-236
▁all	-237
▁ex	-238
ial	-239
▁su	-240
uss	-241
▁ich	-242
ant	-243
▁will	-244
nen	-245
sen	-246
▁The	-247
▁r	-248
00	-249
ann	-250
ck	-251
ib	-252
hal	-253
▁auch	-254
qu	-255
ah	-256
▁An	-257
ne	-258
we	-259
▁uns	-260
▁by	-261
▁vor	-262
igen	-263
ungs	-264
ht	-265
▁Parl	-266
▁European	-267
ens	-268
▁sich	-269
▁y	-270
▁Mr	-271
▁ab	-272
ug	-273
aus	-274
ste	-275
und	-276
▁da	-277
▁Commission	-278
▁über	-279
ik	-280
▁me	-281
och	-282
▁Union	-283
▁sh	-284
port	-285
ions	-286
ain	-287
hen	-288
ad	-289
▁res	-290
▁has	-291
rä	-292
scha	-293
▁Herr	-294
be	-295
iel	-296
pe	-297
▁at	-298
ted	-299
our	-300
▁Be	-301
ern	-302
▁1	-303
art	-304
olit	-305
ist	-306
▁um	-307
ges	-308
uf	-309
ure	-310
▁aus	-311
ers	-312
▁Fra	-313
▁or	-314
▁wird	-315
▁We	-316
heit	-317
▁2	-318
etz	-319
ien	-320
▁hat	-321
▁wie	-322
schaft	-323
tz	-324
▁wor	-325
up	-326
me	-327
▁J	-328
▁Ich	-329
▁haben	-330
▁sind	-331
ahr	-332
itte	-333
▁do	-334
uch	-335
▁Aus	-336
▁En	-337
▁Die	-338
▁i	-339
ische	-340
▁com	-341
llen	-342
▁Er	-343
▁also	-344
▁Kommission	-345
▁was	-346
gr	-347
▁ma	-348
▁sch	-349
▁zur	-350
rom	-351
enn	-352
▁Ber	-353
ates	-354
▁Europä	-355
▁Vor	-356
beit	-357
▁Sch	-358
▁Pres	-359
ise	-360
chte	-361
keit	-362
▁Wir	-363
räs	-364
▁O	-365
▁would	-366
▁Pro	-367
ue	-368
▁Ar	-369
all	-370
ran	-371
▁dar	-372
▁there	-373
ember	-374
ard	-375
lichen	-376
räsident	-377
eren	-378
ige	-379
▁sie	-380
se	-381
dern	-382
ational	-383
aten	-384
▁ag	-385
gt	-386
tern	-387
ations	-388
▁he	-389
ord	-390
od	-391
▁sein	-392
▁mö	-393
▁ent	-394
ous	-395
▁en	-396
▁reg	-397
esch	-398
▁us	-399
ther	-400
▁should	-401
är	-402
ön	-403
du	-404
ect	-405
▁am	-406
ak	-407
ese	-408
cht	-409
▁President	-410
ore	-411
▁di	-412
▁our	-413
ze	-414
▁must	-415
▁from	-416
▁man	-417
üs	-418
ert	-419
ud	-420
ult	-421
▁ad	-422
▁Ein	-423
urch	-424
ou	-425
th	-426
▁unter	-427
able	-428
▁part	-429
ip	-430
▁Ab	-431
▁Präsident	-432
ical	-433
ms	-434
iament	-435
age	-436
▁but	-437
▁Bericht	-438
▁been	-439
▁Parlament	-440
ang	-441
▁Mit	-442
rit	-443
▁einer	-444
▁fa	-445
▁Ent	-446
▁coun	-447
ommen	-448
ition	-449
▁sa	-450
cc	-451
▁diese	-452
ble	-453
▁nach	-454
out	-455
▁It	-456
ick	-457
▁prop	-458
ät	-459
cil	-460
▁EU	-461
▁comp	-462
▁kön	-463
ün	-464
ub	-465
▁app	-466
ast	-467
iz	-468
ühr	-469
cial	-470
form	-471
▁comm	-472
▁Sie	-473
elt	-474
ish	-475
▁countr	-476
▁li	-477
anz	-478
ution	-479
▁Ge	-480
ome	-481
▁bet	-482
ction	-483
▁go	-484
olle	-485
▁qu	-486
▁Member	-487
▁Parliament	-488
ute	-489
▁müs	-490
mer	-491
vel	-492
ary	-493
▁dieser	-494
og	-495
▁Gr	-496
sta	-497
▁can	-498
▁bei	-499
ok	-500
ank	-501
▁einen	-502
ör	-503
con	-504
ieren	-505
pt	-506
▁its	-507
▁pos	-508
ger	-509
▁(	-510
hl	-511
▁report	-512
▁you	-513
liche	-514
ass	-515
▁co	-516
ear	-517
▁Coun	-518
imm	-519
▁ob	-520
▁ste	-521
▁Council	-522
reat	-523
▁Europäischen	-524
chen	-525
glie	-526
▁dis	-527
▁propos	-528
▁müssen	-529
▁durch	-530
▁möchte	-531
▁ch	-532
▁gro	-533
ight	-534
▁polit	-535
▁more	-536
zu	-537
▁gen	-538
▁mein	-539
oc	-540
ierung	-541
▁noch	-542
▁pr	-543
▁po	-544
▁200	-545
▁imp	-546
mp	-547
he	-548
sten	-549
rag	-550
▁ih	-551
fen	-552
▁zw	-553
ress	-554
▁alle	-555
▁like	-556
igh	-557
▁Mitglie	-558
nah	-559
▁zum	-560
ose	-561
▁work	-562
vent	-563
▁inc	-564
olic	-565
ely	-566
ime	-567
▁soll	-568
ance	-569
▁States	-570
▁need	-571
▁who	-572
▁wur	-573
▁these	-574
ag	-575
▁their	-576
▁conc	-577
gan	-578
fore	-579
ap	-580
▁Kon	-581
▁diesem	-582
▁fin	-583
▁ber	-584
▁können	-585
▁kann	-586
lo	-587
ffen	-588
▁other	-589
oll	-590
▁Das	-591
glich	-592
▁This	-593
▁bes	-594
ück	-595
▁spe	-596
ally	-597
▁kein	-598
▁nur	-599
rat	-600
▁Reg	-601
▁cont	-602
ement	-603
▁pre	-604
▁Es	-605
▁pe	-606
▁they	-607
sam	-608
▁Rat	-609
▁war	-610
▁very	-611
hmen	-612
▁aber	-613
igkeit	-614
▁wenn	-615
lic	-616
lin	-617
▁bec	-618
▁sp	-619
▁str	-620
ments	-621
▁oder	-622
iert	-623
ktion	-624
▁Frau	-625
▁polic	-626
▁cons	-627
olitik	-628
▁Mitglied	-629
wo	-630
▁Comm	-631
pport	-632
▁import	-633
ram	-634
▁te	-635
▁jed	-636
cy	-637
rie	-638
sib	-639
▁Arbeit	-640
▁no	-641
yste	-642
▁out	-643
▁gegen	-644
▁countries	-645
au	-646
schen	-647
▁ta	-648
usam	-649
stit	-650
uß	-651
wer	-652
ced	-653
▁up	-654
▁ges	-655
▁weit	-656
▁muss	-657
usammen	-658
ark	-659
▁int	-660
ign	-661
ugh	-662
▁one	-663
are	-664
▁what	-665
uropä	-666
ittel	-667
erst	-668
iden	-669
sicht	-670
str	-671
▁sehr	-672
ice	-673
erv	-674
▁ra	-675
ide	-676
ause	-677
▁my	-678
▁acc	-679
▁Vorsch	-680
one	-681
gram	-682
▁ihr	-683
ject	-684
▁Unter	-685
ütz	-686
▁Mitgliedsta	-687
leich	-688
wick	-689
▁exp	-690
▁Ma	-691
ative	-692
▁leg	-693
ließ	-694
▁eff	-695
che	-696
▁daß	-697
lung	-698
tschaft	-699
ähr	-700
reich	-701
▁inter	-702
▁Jahr	-703
▁about	-704
▁europä	-705
▁De	-706
teil	-707
▁Dies	-708
ring	-709
▁iss	-710
▁hin	-711
ated	-712
▁proposal	-713
velop	-714
▁mo	-715
▁Ä	-716
▁dec	-717
ität	-718
atter	-719
führ	-720
ase	-721
itu	-722
ia	-723
lan	-724
ong	-725
los	-726
▁einem	-727
ire	-728
▁intern	-729
▁if	-730
▁gem	-731
▁wo	-732
utz	-733
änd	-734
ious	-735
▁agre	-736
▁year	-737
ever	-738
ople	-739
nung	-740
▁ind	-741
cess	-742
ities	-743
ces	-744
▁For	-745
onder	-746
▁Se	-747
▁Mitgliedstaaten	-748
▁only	-749
ism	-750
mend	-751
etzt	-752
▁tra	-753
bar	-754
arbeit	-755
lä	-756
assen	-757
ider	-758
iven	-759
▁mehr	-760
▁dire	-761
fahr	-762
▁Men	-763
▁dieses	-764
▁op	-765
int	-766
tet	-767
auf	-768
▁Auf	-769
▁Kolle	-770
icher	-771
▁develop	-772
▁time	-773
▁unser	-774
sche	-775
99	-776
▁partic	-777
▁policy	-778
▁Der	-779
lear	-780
lar	-781
▁again	-782
ility	-783
▁people	-784
▁sol	-785
▁Än	-786
▁any	-787
änder	-788
▁new	-789
fe	-790
▁Le	-791
▁important	-792
▁Änder	-793
geb	-794
ink	-795
▁because	-796
lag	-797
xt	-798
wend	-799
▁tran	-800
▁national	-801
▁wicht	-802
▁how	-803
ahl	-804
rei	-805
alt	-806
▁ihre	-807
▁gew	-808
halb	-809
irst	-810
igt	-811
▁now	-812
bst	-813
ituation	-814
ctive	-815
▁vie	-816
fl	-817
stütz	-818
▁support	-819
ven	-820
ken	-821
ittee	-822
▁rec	-823
▁fe	-824
ular	-825
▁Um	-826
blem	-827
▁hier	-828
ibt	-829
▁"	-830
▁bereit	-831
llt	-832
▁wurde	-833
wir	-834
ri	-835
▁Menschen	-836
leg	-837
hand	-838
▁concern	-839
ings	-840
conom	-841
▁Ü	-842
▁la	-843
▁As	-844
▁kon	-845
ha	-846
▁dam	-847
ors	-848
halten	-849
chn	-850
unity	-851
▁Zusammen	-852
ures	-853
▁ins	-854
igung	-855
▁say	-856
fol	-857
erung	-858
▁take	-859
land	-860
tre	-861
ian	-862
ine	-863
amp	-864
ights	-865
legen	-866
▁make	-867
▁Entwick	-868
ific	-869
▁Grund	-870
▁therefore	-871
▁rel	-872
wor	-873
ru	-874
▁some	-875
▁'	-876
▁gr	-877
▁prov	-878
▁such	-879
▁deb	-880
inis	-881
▁per	-882
▁ar	-883
halt	-884
▁act	-885
▁just	-886
isation	-887
▁diff	-888
ite	-889
nahmen	-890
▁international	-891
ives	-892
▁fact	-893
▁inv	-894
uman	-895
ild	-896
▁way	-897
pon	-898
▁Verb	-899
▁Europäische	-900
▁pres	-901
ange	-902
schuss	-903
led	-904
ystem	-905
mal	-906
vern	-907
ied	-908
ner	-909
▁viel	-910
hör	-911
▁into	-912
200	-913
chts	-914
unkt	-915
ween	-916
trä	-917
kommen	-918
▁between	-919
nehmen	-920
stitution	-921
now	-922
einsam	-923
▁belie	-924
▁being	-925
▁So	-926
▁Über	-927
▁Europa	-928
hin	-929
▁those	-930
ote	-931
weit	-932
ument	-933
▁clear	-934
▁3	-935
▁when	-936
▁particular	-937
▁tak	-938
▁Gem	-939
▁Commissioner	-940
▁Maß	-941
▁fre	-942
sible	-943
ame	-944
iger	-945
für	-946
▁pla	-947
enz	-948
äch	-949
gel	-950
ues	-951
mit	-952
▁Richt	-953
▁econom	-954
ek	-955
▁Te	-956
▁son	-957
äl	-958
▁diesen	-959
ual	-960
▁Frage	-961
▁produ	-962
▁them	-963
▁eines	-964
zie	-965
pect	-966
wie	-967
icherheit	-968
ublic	-969
▁quest	-970
▁bas	-971
▁wel	-972
isten	-973
▁Änderungs	-974
schließ	-975
ision	-976
▁Con	-977
▁Zeit	-978
▁political	-979
issen	-980
▁Haus	-981
▁mark	-982
▁made	-983
▁zwischen	-984
iff	-985
zial	-986
formation	-987
fer	-988
hn	-989
▁rep	-990
▁Bed	-991
get	-992
▁first	-993
ld	-994
▁were	-995
▁Ges	-996
▁Art	-997
ards	-998
▁than	-999
▁Herrn	-1000
▁great	-1001
ustr	-1002
gin	-1003
eration	-1004
▁over	-1005
▁groß	-1006
▁Mein	-1007
iti	-1008
▁damit	-1009
▁best	-1010
eral	-1011
▁mich	-1012
ateg	-1013
▁respon	-1014
▁sondern	-1015
▁sub	-1016
rauch	-1017
zeit	-1018
▁end	-1019
▁keine	-1020
▁amend	-1021
ved	-1022
▁Land	-1023
▁human	-1024
▁know	-1025
fr	-1026
▁believe	-1027
▁Fin	-1028
▁habe	-1029
▁gibt	-1030
▁Bür	-1031
▁ro	-1032
nis	-1033
▁Kommiss	-1034
atz	-1035
ändern	-1036
▁emp	-1037
▁disc	-1038
ans	-1039
▁europäischen	-1040
weise	-1041
abe	-1042
ating	-1043
▁jedoch	-1044
ile	-1045
acht	-1046
uen	-1047
ats	-1048
eth	-1049
tw	-1050
▁Bere	-1051
▁Kommissar	-1052
forder	-1053
ds	-1054
▁Al	-1055
elbst	-1056
▁point	-1057
▁Ih	-1058
▁denn	-1059
enden	-1060
▁ass	-1061
▁market	-1062
cept	-1063
▁Vorschlag	-1064
day	-1065
itz	-1066
ural	-1067
fin	-1068
ient	-1069
ty	-1070
▁beste	-1071
▁right	-1072
uro	-1073
vention	-1074
▁Sp	-1075
isl	-1076
▁sowie	-1077
ragen	-1078
▁Sta	-1079
▁Committee	-1080
ack	-1081
▁issue	-1082
▁anderen	-1083
olog	-1084
▁wür	-1085
▁dann	-1086
▁rights	-1087
▁unsere	-1088
▁–	-1089
▁debate	-1090
▁fund	-1091
▁Bereich	-1092
▁bereits	-1093
▁rem	-1094
lement	-1095
▁fest	-1096
icult	-1097
▁stat	-1098
▁under	-1099
einschaft	-1100
▁requ	-1101
▁ac	-1102
▁tr	-1103
rechen	-1104
▁hand	-1105
very	-1106
vor	-1107
▁weiter	-1108
feren	-1109
▁ho	-1110
▁many	-1111
els	-1112
wn	-1113
amen	-1114
pro	-1115
ited	-1116
tro	-1117
▁add	-1118
ertain	-1119
orte	-1120
▁cour	-1121
kehr	-1122
achen	-1123
▁think	-1124
▁her	-1125
▁Parlaments	-1126
▁against	-1127
▁heute	-1128
ope	-1129
▁ganz	-1130
linie	-1131
arm	-1132
/200	-1133
▁gemeinsam	-1134
▁meas	-1135
▁einz	-1136
▁adop	-1137
read	-1138
kl	-1139
ised	-1140
ving	-1141
ull	-1142
▁That	-1143
▁even	-1144
tens	-1145
▁bis	-1146
▁agreement	-1147
ionen	-1148
▁Maßnahmen	-1149
▁199	-1150
▁public	-1151
▁Ausschuss	-1152
ordnung	-1153
fü	-1154
dem	-1155
inister	-1156
isk	-1157
▁Ste	-1158
iron	-1159
ene	-1160
▁view	-1161
ough	-1162
▁weil	-1163
entlich	-1164
▁order	-1165
ss	-1166
arkt	-1167
entr	-1168
▁nat	-1169
▁Sicherheit	-1170
▁There	-1171
ett	-1172
ention	-1173
pr	-1174
▁Besch	-1175
viron	-1176
ob	-1177
▁two	-1178
vironment	-1179
ahmen	-1180
sel	-1181
▁Entwicklung	-1182
▁question	-1183
5-	-1184
▁does	-1185
oth	-1186
isen	-1187
▁want	-1188
▁Bürger	-1189
▁Rechts	-1190
▁Wh	-1191
▁consider	-1192
▁vom	-1193
▁social	-1194
▁well	-1195
▁transp	-1196
error	-1197
▁where	-1198
▁Rahmen	-1199
bens	-1200
▁had	-1201
raft	-1202
isse	-1203
▁par	-1204
▁gesch	-1205
erson	-1206
▁years	-1207
▁Kollegen	-1208
hne	-1209
▁bring	-1210
▁legisl	-1211
ulation	-1212
fall	-1213
▁Mrs	-1214
▁certain	-1215
▁geht	-1216
▁cann	-1217
▁darauf	-1218
itiz	-1219
kte	-1220
▁Nach	-1221
gend	-1222
welt	-1223
▁denen	-1224
▁incl	-1225
loy	-1226
bes	-1227
udget	-1228
▁lie	-1229
▁incre	-1230
llung	-1231
richt	-1232
ischer	-1233
inc	-1234
▁5	-1235
lemen	-1236
▁4	-1237
▁regard	-1238
▁cannot	-1239
lagen	-1240
lle	-1241
▁Hin	-1242
▁development	-1243
▁Zu	-1244
uture	-1245
▁ange	-1246
▁unterstütz	-1247
▁Mittel	-1248
▁use	-1249
▁immer	-1250
cted	-1251
▁same	-1252
▁situation	-1253
erg	-1254
ov	-1255
▁good	-1256
▁said	-1257
▁possible	-1258
act	-1259
▁Ch	-1260
▁aut	-1261
▁matter	-1262
etzen	-1263
nahme	-1264
▁future	-1265
▁economic	-1266
▁could	-1267
mittel	-1268
▁appro	-1269
▁Da	-1270
▁wieder	-1271
▁Inter	-1272
iß	-1273
urr	-1274
▁effect	-1275
fahren	-1276
gesch	-1277
▁prote	-1278
ondere	-1279
okrat	-1280
▁ach	-1281
ready	-1282
äre	-1283
geben	-1284
▁ger	-1285
äft	-1286
▁already	-1287
▁Wie	-1288
▁here	-1289
isp	-1290
▁mir	-1291
▁every	-1292
ional	-1293
▁within	-1294
▁too	-1295
▁hel	-1296
▁zwe	-1297
▁sollten	-1298
▁Verein	-1299
▁unserer	-1300
rim	-1301
ätz	-1302
schie	-1303
▁program	-1304
scheid	-1305
ory	-1306
▁wichtig	-1307
öglich	-1308
ac	-1309
ständ	-1310
▁Ko	-1311
▁Dem	-1312
ritt	-1313
ffe	-1314
▁ens	-1315
▁wirk	-1316
▁able	-1317
vernment	-1318
such	-1319
▁verb	-1320
▁country	-1321
work	-1322
▁measures	-1323
▁real	-1324
▁Community	-1325
▁Gemeinschaft	-1326
▁resol	-1327
▁citiz	-1328
les	-1329
▁still	-1330
▁sollte	-1331
ices	-1332
ict	-1333
▁Str	-1334
▁meine	-1335
▁system	-1336
orteur	-1337
▁contin	-1338
cond	-1339
▁directive	-1340
▁selbst	-1341
geord	-1342
▁sagen	-1343
▁process	-1344
essen	-1345
öff	-1346
▁most	-1347
▁besch	-1348
ently	-1349
pporteur	-1350
ority	-1351
▁num	-1352
immung	-1353
▁dafür	-1354
▁wurden	-1355
▁off	-1356
ree	-1357
▁much	-1358
▁letz	-1359
▁Berichterst	-1360
▁level	-1361
▁ask	-1362
geordne	-1363
▁mon	-1364
rough	-1365
▁Richtlinie	-1366
▁rapporteur	-1367
▁posit	-1368
▁course	-1369
▁bin	-1370
▁doch	-1371
operation	-1372
▁att	-1373
omp	-1374
gehen	-1375
▁gleich	-1376
ös	-1377
utions	-1378
▁discuss	-1379
▁jetzt	-1380
vers	-1381
▁achie	-1382
▁hope	-1383
▁environment	-1384
derung	-1385
ful	-1386
ves	-1387
▁Euro	-1388
träge	-1389
▁pra	-1390
inn	-1391
▁ihrer	-1392
▁Or	-1393
▁neg	-1394
▁Des	-1395
▁finan	-1396
▁Gro	-1397
▁techn	-1398
etzung	-1399
▁see	-1400
▁own	-1401
lossen	-1402
▁group	-1403
▁serv	-1404
▁put	-1405
▁How	-1406
satz	-1407
▁Wenn	-1408
▁Ziel	-1409
▁Politik	-1410
zus	-1411
urther	-1412
▁lo	-1413
▁hal	-1414
▁organ	-1415
▁Im	-1416
lish	-1417
▁Them	-1418
klär	-1419
immt	-1420
▁curr	-1421
▁common	-1422
▁etw	-1423
▁world	-1424
▁however	-1425
▁taken	-1426
▁through	-1427
▁citizens	-1428
▁gu	-1429
erm	-1430
▁Umwelt	-1431
▁today	-1432
besondere	-1433
▁.	-1434
▁vote	-1435
▁your	-1436
way	-1437
▁conf	-1438
▁allem	-1439
▁ele	-1440
▁thank	-1441
▁dazu	-1442
▁last	-1443
▁Abgeordne	-1444
ason	-1445
▁case	-1446
▁wen	-1447
▁both	-1448
▁number	-1449
▁examp	-1450
incip	-1451
▁sc	-1452
▁spec	-1453
▁princip	-1454
▁budget	-1455
äm	-1456
ouse	-1457
▁Recht	-1458
isierung	-1459
air	-1460
ount	-1461
▁his	-1462
ßen	-1463
▁democ	-1464
▁Beit	-1465
ält	-1466
▁Geb	-1467
▁Me	-1468
red	-1469
lage	-1470
wort	-1471
▁wollen	-1472
▁then	-1473
omen	-1474
reit	-1475
punkt	-1476
ispiel	-1477
▁may	-1478
▁get	-1479
alth	-1480
heiten	-1481
lau	-1482
genommen	-1483
öl	-1484
▁problem	-1485
▁sec	-1486
▁som	-1487
▁reason	-1488
▁object	-1489
▁interest	-1490
antrag	-1491
öglichkeit	-1492
▁Wirtschaft	-1493
tegr	-1494
▁würde	-1495
luss	-1496
▁ser	-1497
ühren	-1498
ruck	-1499
▁Diese	-1500
eln	-1501
▁ohne	-1502
ret	-1503
uct	-1504
ukt	-1505
▁sozial	-1506
▁Ihnen	-1507
ail	-1508
5-0	-1509
▁ausge	-1510
assung	-1511
wohl	-1512
▁law	-1513
▁insbesondere	-1514
affen	-1515
▁fra	-1516
uer	-1517
reichen	-1518
ismus	-1519
▁Mon	-1520
beral	-1521
▁why	-1522
▁Welt	-1523
ace	-1524
blems	-1525
ages	-1526
zeich	-1527
▁place	-1528
kun	-1529
▁Au	-1530
▁einige	-1531
▁Länder	-1532
▁invol	-1533
trag	-1534
gangen	-1535
ater	-1536
rimin	-1537
▁information	-1538
▁möglich	-1539
antwort	-1540
arge	-1541
▁far	-1542
halts	-1543
▁begr	-1544
▁Ha	-1545
▁means	-1546
▁meiner	-1547
▁Fraktion	-1548
▁example	-1549
▁aller	-1550
▁auth	-1551
hol	-1552
▁cooperation	-1553
bat	-1554
▁amendments	-1555
trib	-1556
▁find	-1557
ster	-1558
▁neuen	-1559
▁könn	-1560
io	-1561
tend	-1562
urity	-1563
▁Problem	-1564
ekt	-1565
gem	-1566
lungs	-1567
▁sect	-1568
ince	-1569
▁before	-1570
▁est	-1571
▁Änderungsan	-1572
▁sim	-1573
▁main	-1574
▁wäre	-1575
bal	-1576
zug	-1577
▁nun	-1578
▁ensure	-1579
itions	-1580
▁legal	-1581
licher	-1582
▁allen	-1583
▁impro	-1584
▁maj	-1585
schieden	-1586
kon	-1587
▁Finanz	-1588
▁area	-1589
▁andere	-1590
tellt	-1591
itä	-1592
fter	-1593
▁United	-1594
▁Hand	-1595
▁necess	-1596
▁If	-1597
▁position	-1598
itiative	-1599
uring	-1600
öß	-1601
own	-1602
▁present	-1603
▁Q	-1604
▁sicher	-1605
▁Zusammenarbeit	-1606
▁tun	-1607
igten	-1608
▁issues	-1609
▁wissen	-1610
ollow	-1611
▁Jahren	-1612
ften	-1613
ether	-1614
ürlich	-1615
▁sign	-1616
▁stand	-1617
ability	-1618
rü	-1619
▁Fragen	-1620
▁seine	-1621
ium	-1622
▁ref	-1623
wä	-1624
▁He	-1625
stellen	-1626
▁However	-1627
ordin	-1628
▁House	-1629
ital	-1630
▁schon	-1631
schr	-1632
ules	-1633
▁machen	-1634
▁without	-1635
kunft	-1636
gese	-1637
▁action	-1638
fung	-1639
▁financial	-1640
ichts	-1641
lungen	-1642
gele	-1643
ablish	-1644
alk	-1645
▁full	-1646
▁Fl	-1647
▁prom	-1648
▁Is	-1649
▁Y	-1650
▁respect	-1651
▁Rates	-1652
▁Fall	-1653
itt	-1654
gest	-1655
unden	-1656
▁mak	-1657
▁wish	-1658
▁given	-1659
ically	-1660
äß	-1661
äng	-1662
▁car	-1663
▁includ	-1664
spra	-1665
▁employ	-1666
lus	-1667
▁set	-1668
ential	-1669
rechte	-1670
▁give	-1671
▁US	-1672
br	-1673
ade	-1674
▁gent	-1675
lex	-1676
erk	-1677
▁Proble	-1678
▁differ	-1679
▁gut	-1680
adies	-1681
orities	-1682
▁All	-1683
▁Program	-1684
ho	-1685
▁implement	-1686
▁compet	-1687
▁problems	-1688
spolitik	-1689
▁gentlemen	-1690
aff	-1691
▁rat	-1692
▁allow	-1693
▁follow	-1694
▁Teil	-1695
zeug	-1696
▁Möglichkeit	-1697
hang	-1698
▁Entscheid	-1699
▁repres	-1700
▁entsp	-1701
politik	-1702
▁Bet	-1703
ölk	-1704
▁gef	-1705
▁proced	-1706
▁establish	-1707
gress	-1708
▁gest	-1709
▁long	-1710
nisse	-1711
▁Was	-1712
▁öff	-1713
▁proposals	-1714
▁worden	-1715
zess	-1716
▁Unterstütz	-1717
werb	-1718
ppen	-1719
▁zwei	-1720
▁6	-1721
idency	-1722
▁Her	-1723
▁industr	-1724
▁ur	-1725
come	-1726
▁Minister	-1727
▁Abst	-1728
▁Arbeits	-1729
▁Fisch	-1730
spro	-1731
hil	-1732
▁access	-1733
▁einmal	-1734
falls	-1735
chten	-1736
▁deal	-1737
elf	-1738
▁Unterstützung	-1739
▁Stand	-1740
walt	-1741
▁further	-1742
▁besteht	-1743
deut	-1744
grund	-1745
utung	-1746
▁necessary	-1747
▁neue	-1748
ately	-1749
▁trans	-1750
▁glau	-1751
isions	-1752
▁Members	-1753
▁geb	-1754
▁aid	-1755
immen	-1756
▁call	-1757
ialog	-1758
▁express	-1759
▁ke	-1760
anken	-1761
▁redu	-1762
agt	-1763
undheit	-1764
▁wirtschaft	-1765
▁Regierung	-1766
▁Unternehmen	-1767
gleich	-1768
entral	-1769
▁Namen	-1770
▁Gen	-1771
▁schw	-1772
▁betr	-1773
org	-1774
▁areas	-1775
▁form	-1776
▁opin	-1777
ying	-1778
flicht	-1779
▁etwas	-1780
▁particularly	-1781
▁Deshalb	-1782
ämp	-1783
▁meet	-1784
▁require	-1785
▁whether	-1786
cing	-1787
ents	-1788
▁Ländern	-1789
▁%	-1790
illion	-1791
abil	-1792
▁Staaten	-1793
oti	-1794
innen	-1795
läge	-1796
tem	-1797
vour	-1798
tra	-1799
abei	-1800
strument	-1801
▁decision	-1802
ost	-1803
▁bed	-1804
neh	-1805
itor	-1806
▁darüber	-1807
▁av	-1808
ence	-1809
▁basis	-1810
▁Zusammenhang	-1811
ginnen	-1812
mework	-1813
▁Haushalts	-1814
fit	-1815
▁Situation	-1816
führt	-1817
iften	-1818
▁adopted	-1819
▁Gebie	-1820
ward	-1821
▁No	-1822
ende	-1823
▁politischen	-1824
▁eing	-1825
▁Meinung	-1826
▁kommen	-1827
ktor	-1828
ible	-1829
lick	-1830
uktur	-1831
▁bek	-1832
äuß	-1833
▁second	-1834
zept	-1835
▁Bes	-1836
sequ	-1837
▁difficult	-1838
ality	-1839
▁negoti	-1840
fä	-1841
zieh	-1842
führung	-1843
▁voll	-1844
▁imm	-1845
▁Intern	-1846
sibility	-1847
ettbe	-1848
ache	-1849
▁help	-1850
hip	-1851
▁opport	-1852
▁Ind	-1853
ga	-1854
lobal	-1855
rieden	-1856
ird	-1857
▁strateg	-1858
▁contro	-1859
ning	-1860
▁geben	-1861
▁high	-1862
▁different	-1863
▁zwar	-1864
ettbewerb	-1865
entlichen	-1866
▁Ö	-1867
une	-1868
▁health	-1869
ilit	-1870
▁Bede	-1871
▁On	-1872
▁ter	-1873
▁ihren	-1874
▁done	-1875
ders	-1876
▁women	-1877
▁legislation	-1878
ivil	-1879
▁gel	-1880
▁notwend	-1881
als	-1882
racht	-1883
ünft	-1884
olk	-1885
half	-1886
▁pract	-1887
▁klar	-1888
▁größ	-1889
folg	-1890
▁deut	-1891
zü	-1892
▁result	-1893
▁programme	-1894
▁simp	-1895
▁ladies	-1896
ierungs	-1897
▁Ira	-1898
ren	-1899
urs	-1900
▁Bedeutung	-1901
wirtschaft	-1902
▁terms	-1903
▁behalf	-1904
▁zurück	-1905
▁Auß	-1906
▁At	-1907
▁supp	-1908
▁product	-1909
ph	-1910
▁Thema	-1911
▁accept	-1912
wert	-1913
▁viele	-1914
ärk	-1915
stellung	-1916
fet	-1917
▁Ne	-1918
▁fo	-1919
▁UN	-1920
▁equ	-1921
▁2000	-1922
▁komm	-1923
▁protection	-1924
markt	-1925
▁concerned	-1926
▁Änderungsantrag	-1927
▁since	-1928
ämlich	-1929
▁Entschließ	-1930
▁nämlich	-1931
▁serious	-1932
▁Frauen	-1933
▁commit	-1934
fety	-1935
▁Probleme	-1936
gre	-1937
orgen	-1938
▁ze	-1939
ante	-1940
▁terror	-1941
▁seit	-1942
gement	-1943
▁next	-1944
▁resolution	-1945
ference	-1946
ziel	-1947
▁poin	-1948
ided	-1949
▁sm	-1950
▁Lös	-1951
▁Verbrauch	-1952
▁What	-1953
ganisation	-1954
ffair	-1955
▁contrib	-1956
▁progress	-1957
▁erforder	-1958
▁seiner	-1959
▁Best	-1960
vement	-1961
▁rules	-1962
stand	-1963
▁security	-1964
annt	-1965
▁Schutz	-1966
ierten	-1967
▁Treat	-1968
▁Fre	-1969
par	-1970
eld	-1971
▁Debat	-1972
other	-1973
▁crit	-1974
▁framework	-1975
▁cre	-1976
▁min	-1977
amil	-1978
▁wirklich	-1979
▁natürlich	-1980
▁dür	-1981
tain	-1982
▁begrü	-1983
lichkeit	-1984
▁bess	-1985
anden	-1986
▁zweit	-1987
▁opinion	-1988
▁ir	-1989
amental	-1990
ücksicht	-1991
gricult	-1992
▁Abgeordneten	-1993
ichte	-1994
ifft	-1995
sprache	-1996
▁whole	-1997
ächst	-1998
leicht	-1999
▁role	-2000
▁Fort	-2001
ma	-2002
▁besonder	-2003
▁lang	-2004
reffen	-2005
▁cl	-2006
▁pri	-2007
liegen	-2008
▁betrifft	-2009
▁pow	-2010
▁services	-2011
▁consum	-2012
▁invest	-2013
▁Tran	-2014
wirk	-2015
▁speak	-2016
upt	-2017
▁Zukunft	-2018
▁inde	-2019
ffairs	-2020
▁eben	-2021
▁Gesch	-2022
▁favour	-2023
▁increas	-2024
ünd	-2025
▁Bei	-2026
▁cr	-2027
▁richt	-2028
▁effort	-2029
▁fol	-2030
ething	-2031
▁Group	-2032
ught	-2033
▁enlar	-2034
▁Mad	-2035
wards	-2036
▁unterstützen	-2037
▁come	-2038
▁integr	-2039
▁sens	-2040
▁sector	-2041
▁subject	-2042
weisen	-2043
von	-2044
iele	-2045
▁wes	-2046
aly	-2047
gaben	-2048
▁look	-2049
▁7	-2050
agement	-2051
▁account	-2052
spr	-2053
ale	-2054
glichen	-2055
▁stehen	-2056
ler	-2057
▁Ergeb	-2058
bene	-2059
TO	-2060
▁20	-2061
▁Amend	-2062
▁Br	-2063
ikel	-2064
▁State	-2065
ried	-2066
osition	-2067
▁eigen	-2068
▁cond	-2069
▁back	-2070
▁approach	-2071
rodu	-2072
▁after	-2073
▁2001	-2074
▁9	-2075
▁something	-2076
ified	-2077
ßer	-2078
▁Mill	-2079
▁agree	-2080
▁Ansicht	-2081
▁med	-2082
hall	-2083
▁Lage	-2084
overnment	-2085
▁Li	-2086
ising	-2087
▁Erweit	-2088
▁anges	-2089
▁safety	-2090
▁11	-2091
▁glaube	-2092
▁mention	-2093
▁ja	-2094
▁Stra	-2095
spräsident	-2096
▁proposed	-2097
ienst	-2098
gew	-2099
ahre	-2100
▁ander	-2101
▁Seit	-2102
▁defin	-2103
▁Red	-2104
▁Disk	-2105
▁außer	-2106
▁gesagt	-2107
▁pl	-2108
▁principle	-2109
atives	-2110
▁few	-2111
wär	-2112
dert	-2113
▁8	-2114
▁instit	-2115
▁open	-2116
ting	-2117
andid	-2118
▁extre	-2119
man	-2120
▁abs	-2121
lei	-2122
▁clos	-2123
▁hät	-2124
▁control	-2125
llschaft	-2126
▁Information	-2127
ährend	-2128
schied	-2129
wendung	-2130
▁Abstimmung	-2131
▁bro	-2132
▁commun	-2133
▁specific	-2134
ilt	-2135
ude	-2136
▁going	-2137
▁gegenüber	-2138
▁shall	-2139
▁Gleich	-2140
ervor	-2141
▁val	-2142
ines	-2143
ep	-2144
ock	-2145
▁three	-2146
▁Aussprache	-2147
▁Rolle	-2148
▁vo	-2149
▁But	-2150
▁Ange	-2151
rael	-2152
▁working	-2153
▁EUR	-2154
fte	-2155
▁Kontro	-2156
▁down	-2157
bere	-2158
▁Verantwort	-2159
fach	-2160
▁transport	-2161
▁peace	-2162
wed	-2163
▁plan	-2164
ists	-2165
vious	-2166
▁vorgesch	-2167
▁Pr	-2168
bed	-2169
▁unseren	-2170
▁letzten	-2171
▁regional	-2172
▁jo	-2173
▁drei	-2174
▁represent	-2175
▁Kolleginnen	-2176
gl	-2177
ife	-2178
▁underst	-2179
▁europäische	-2180
▁Weise	-2181
rän	-2182
ferenz	-2183
druck	-2184
▁Wettbewerb	-2185
treten	-2186
▁quite	-2187
war	-2188
gemein	-2189
▁colle	-2190
▁del	-2191
▁daher	-2192
▁Vorschläge	-2193
▁person	-2194
▁zusammen	-2195
▁ide	-2196
▁institutions	-2197
▁compan	-2198
▁Convention	-2199
zip	-2200
erien	-2201
▁hervor	-2202
▁better	-2203
▁parl	-2204
ystems	-2205
▁dra	-2206
▁Aber	-2207
▁Artikel	-2208
zw	-2209
▁Hil	-2210
▁Erweiterung	-2211
prochen	-2212
gar	-2213
ccess	-2214
▁statt	-2215
▁darf	-2216
▁2002	-2217
▁19	-2218
▁risk	-2219
urz	-2220
▁bal	-2221
▁continue	-2222
▁direct	-2223
▁Debatte	-2224
▁Pal	-2225
ways	-2226
▁soc	-2227
▁cap	-2228
▁Punkt	-2229
▁davon	-2230
hält	-2231
▁Fol	-2232
▁var	-2233
▁reform	-2234
gelegt	-2235
▁finanz	-2236
▁positive	-2237
▁stellen	-2238
▁adv	-2239
arante	-2240
ound	-2241
ually	-2242
▁forward	-2243
elle	-2244
▁Demokrat	-2245
▁Am	-2246
▁15	-2247
ively	-2248
edom	-2249
wärt	-2250
▁brauch	-2251
blick	-2252
▁12	-2253
▁umf	-2254
itäten	-2255
▁member	-2256
▁Volk	-2257
gether	-2258
▁general	-2259
▁Ausschusses	-2260
▁guarante	-2261
▁change	-2262
000	-2263
▁konk	-2264
pecial	-2265
▁Presidency	-2266
▁vorgeschlagen	-2267
mö	-2268
▁Not	-2269
unächst	-2270
▁stren	-2271
ath	-2272
ativen	-2273
▁bew	-2274
▁Amer	-2275
▁deren	-2276
inder	-2277
uft	-2278
unde	-2279
▁daran	-2280
▁Madam	-2281
▁Produ	-2282
▁enlargement	-2283
▁talk	-2284
▁used	-2285
▁könnte	-2286
▁organis	-2287
miss	-2288
▁bestimm	-2289
dings	-2290
▁Jahre	-2291
▁gewähr	-2292
▁äuß	-2293
▁verschieden	-2294
▁offen	-2295
▁Und	-2296
▁global	-2297
▁read	-2298
▁clearly	-2299
igkeiten	-2300
▁cost	-2301
ingungen	-2302
▁hoffe	-2303
recht	-2304
▁environmental	-2305
▁Man	-2306
ropri	-2307
▁nationalen	-2308
legenheit	-2309
▁Treaty	-2310
ratic	-2311
ika	-2312
▁rev	-2313
▁Verbraucher	-2314
ension	-2315
fort	-2316
ierte	-2317
▁regulation	-2318
▁milit	-2319
▁step	-2320
▁Beschäft	-2321
▁agricult	-2322
yl	-2323
▁current	-2324
▁Energ	-2325
▁pay	-2326
iving	-2327
▁Verhand	-2328
▁priv	-2329
▁Sol	-2330
▁erst	-2331
▁Viel	-2332
▁towards	-2333
▁day	-2334
▁darin	-2335
▁rather	-2336
▁bestehen	-2337
▁committee	-2338
rach	-2339
▁Fran	-2340
▁oper	-2341
▁Lebens	-2342
urn	-2343
uge	-2344
▁welcome	-2345
▁Durch	-2346
▁führen	-2347
häng	-2348
iation	-2349
▁Zust	-2350
▁aim	-2351
ged	-2352
merk	-2353
ases	-2354
▁muß	-2355
ared	-2356
▁needs	-2357
▁Mehr	-2358
▁Rechte	-2359
▁Präsidentin	-2360
▁-,	-2361
▁socie	-2362
▁Bezug	-2363
▁million	-2364
att	-2365
ander	-2366
raum	-2367
▁ess	-2368
▁gesam	-2369
▁Ums	-2370
▁Markt	-2371
verkehr	-2372
▁small	-2373
▁dr	-2374
▁resour	-2375
▁third	-2376
▁especial	-2377
ises	-2378
▁Bem	-2379
▁remain	-2380
iesen	-2381
ffic	-2382
▁einge	-2383
▁govern	-2384
fra	-2385
icle	-2386
gesehen	-2387
▁extrem	-2388
schaften	-2389
▁state	-2390
▁employment	-2391
verständ	-2392
▁project	-2393
ogen	-2394
▁lassen	-2395
ont	-2396
▁least	-2397
▁Weg	-2398
▁Affairs	-2399
▁especially	-2400
▁large	-2401
▁Person	-2402
▁did	-2403
▁Gesundheit	-2404
▁inform	-2405
ters	-2406
▁USA	-2407
▁dabei	-2408
▁Tur	-2409
▁together	-2410
▁understand	-2411
▁10	-2412
▁fundamental	-2413
term	-2414
▁trade	-2415
iar	-2416
▁less	-2417
umen	-2418
▁comple	-2419
▁itself	-2420
▁essential	-2421
▁importance	-2422
though	-2423
▁exist	-2424
▁Lösung	-2425
▁zust	-2426
▁deshalb	-2427
▁während	-2428
▁Europas	-2429
▁cor	-2430
▁dep	-2431
▁Sozial	-2432
▁greater	-2433
▁another	-2434
▁Forsch	-2435
▁really	-2436
ield	-2437
▁event	-2438
▁regul	-2439
pflicht	-2440
▁conditions	-2441
ling	-2442
▁derzeit	-2443
▁große	-2444
▁Ex	-2445
▁Menschenrechte	-2446
▁welche	-2447
▁bene	-2448
▁transpar	-2449
▁introdu	-2450
völk	-2451
▁waren	-2452
ivid	-2453
▁bringen	-2454
bau	-2455
▁Terror	-2456
di	-2457
▁politische	-2458
ationen	-2459
ware	-2460
▁They	-2461
▁Russ	-2462
▁ev	-2463
▁points	-2464
▁relations	-2465
▁Entwicklungs	-2466
▁dürfen	-2467
▁Ihre	-2468
armon	-2469
▁These	-2470
▁provide	-2471
▁2003	-2472
ennt	-2473
▁sowohl	-2474
▁liegt	-2475
▁authorities	-2476
▁reach	-2477
earch	-2478
▁recog	-2479
kämp	-2480
▁industry	-2481
unehmen	-2482
▁Transp	-2483
rech	-2484
ildung	-2485
▁Institution	-2486
▁research	-2487
▁appropri	-2488
▁responsibility	-2489
▁gehör	-2490
▁Bar	-2491
▁tax	-2492
▁Auch	-2493
▁Fe	-2494
ator	-2495
▁once	-2496
▁bef	-2497
ances	-2498
▁Bel	-2499
▁success	-2500
▁elect	-2501
gestellt	-2502
genda	-2503
ikan	-2504
racy	-2505
inzip	-2506
▁Zug	-2507
gabe	-2508
▁Fischere	-2509
▁recht	-2510
▁products	-2511
▁lim	-2512
▁become	-2513
▁einigen	-2514
▁vi	-2515
▁ihnen	-2516
▁Vertrag	-2517
▁Gesetz	-2518
▁air	-2519
ustrie	-2520
▁Dar	-2521
▁resources	-2522
imes	-2523
▁steht	-2524
idar	-2525
▁start	-2526
sweise	-2527
oment	-2528
emp	-2529
ierungen	-2530
▁Ger	-2531
ining	-2532
▁Beispiel	-2533
▁during	-2534
▁ak	-2535
▁increase	-2536
▁Asp	-2537
▁opportunity	-2538
▁el	-2539
leist	-2540
▁deutlich	-2541
▁making	-2542
▁Israel	-2543
zahl	-2544
isher	-2545
inistr	-2546
▁always	-2547
▁Gegen	-2548
▁government	-2549
illeg	-2550
▁Umsetzung	-2551
▁Pl	-2552
sichtlich	-2553
▁addition	-2554
▁hinaus	-2555
▁opp	-2556
▁lead	-2557
▁Med	-2558
enzen	-2559
▁feel	-2560
/2001	-2561
▁including	-2562
▁procedure	-2563
aum	-2564
bei	-2565
▁Ihr	-2566
text	-2567
▁accord	-2568
utet	-2569
ktionen	-2570
komm	-2571
ländern	-2572
▁Auff	-2573
▁each	-2574
▁ersten	-2575
ktiv	-2576
▁Regel	-2577
▁großen	-2578
▁achieve	-2579
gung	-2580
▁lea	-2581
use	-2582
▁Verordnung	-2583
▁activ	-2584
▁internationalen	-2585
▁freedom	-2586
▁berücksicht	-2587
oney	-2588
▁various	-2589
▁Uns	-2590
▁illeg	-2591
▁prevent	-2592
llig	-2593
▁taking	-2594
atten	-2595
sid	-2596
▁Ho	-2597
▁Form	-2598
▁sollen	-2599
▁treat	-2600
▁Verkehr	-2601
▁cult	-2602
▁demand	-2603
▁handelt	-2604
▁Tages	-2605
ifen	-2606
▁000	-2607
fäh	-2608
hörden	-2609
▁regions	-2610
▁occ	-2611
▁energ	-2612
▁policies	-2613
▁det	-2614
ähl	-2615
han	-2616
▁rece	-2617
ably	-2618
▁absol	-2619
hnt	-2620
▁aspect	-2621
▁Frieden	-2622
▁Ebene	-2623
schutz	-2624
▁verst	-2625
linien	-2626
▁je	-2627
▁einzel	-2628
bereich	-2629
▁play	-2630
eits	-2631
▁Reform	-2632
▁kle	-2633
▁Jahres	-2634
iness	-2635
▁Mar	-2636
spect	-2637
▁Erklär	-2638
hö	-2639
▁Grün	-2640
▁gilt	-2641
▁Zahl	-2642
aps	-2643
ipf	-2644
▁words	-2645
▁adm	-2646
▁nie	-2647
▁society	-2648
thing	-2649
▁beispiel	-2650
onds	-2651
▁ans	-2652
▁nor	-2653
▁And	-2654
alen	-2655
▁Liberal	-2656
▁individ	-2657
▁involved	-2658
▁Standpunkt	-2659
▁bus	-2660
▁entsprechen	-2661
ekte	-2662
nehmer	-2663
stehen	-2664
▁Ratspräsident	-2665
gegen	-2666
▁Wahl	-2667
▁danken	-2668
▁aufge	-2669
mitt	-2670
▁interests	-2671
▁Ausdruck	-2672
▁parliament	-2673
benso	-2674
▁akzept	-2675
länder	-2676
▁negotiations	-2677
▁concerns	-2678
yp	-2679
ortug	-2680
▁demokrat	-2681
▁gerade	-2682
▁grow	-2683
▁refer	-2684
▁gemeinsame	-2685
igr	-2686
▁address	-2687
▁hist	-2688
▁Hinblick	-2689
stitutional	-2690
▁kurz	-2691
▁Verantwortung	-2692
▁sozialen	-2693
▁competition	-2694
▁Komp	-2695
▁major	-2696
duc	-2697
raph	-2698
kämpfung	-2699
mes	-2700
tember	-2701
ry	-2702
▁subst	-2703
▁month	-2704
▁led	-2705
▁To	-2706
grat	-2707
▁Hilfe	-2708
▁besonders	-2709
▁Emp	-2710
▁erhalten	-2711
▁money	-2712
reicht	-2713
iod	-2714
tellen	-2715
▁beiden	-2716
▁adopt	-2717
fern	-2718
row	-2719
▁fall	-2720
zogen	-2721
▁Fund	-2722
erecht	-2723
▁companies	-2724
ule	-2725
▁Sep	-2726
chan	-2727
▁September	-2728
▁short	-2729
▁Eine	-2730
▁extremely	-2731
ategie	-2732
oting	-2733
ification	-2734
▁Zwe	-2735
▁Diskuss	-2736
▁fight	-2737
▁things	-2738
▁Rep	-2739
▁näch	-2740
▁struct	-2741
▁gemeinsamen	-2742
▁child	-2743
esen	-2744
▁sei	-2745
▁beispielsweise	-2746
sätz	-2747
scheiden	-2748
▁members	-2749
▁nichts	-2750
▁Demokratie	-2751
▁let	-2752
ufen	-2753
gratul	-2754
▁Bevölk	-2755
▁Wort	-2756
ased	-2757
▁food	-2758
net	-2759
▁angenommen	-2760
▁grund	-2761
▁communic	-2762
ily	-2763
amt	-2764
rück	-2765
irm	-2766
ausschuss	-2767
▁werde	-2768
▁applic	-2769
▁gegenwärt	-2770
urg	-2771
zen	-2772
ummit	-2773
ustain	-2774
heb	-2775
▁having	-2776
reg	-2777
▁decisions	-2778
▁mod	-2779
▁internal	-2780
▁kommt	-2781
▁Qu	-2782
unkte	-2783
▁congratul	-2784
maß	-2785
▁non	-2786
▁Gre	-2787
▁heiß	-2788
▁1999	-2789
▁table	-2790
▁inner	-2791
▁text	-2792
▁show	-2793
▁draft	-2794
▁Außen	-2795
▁yet	-2796
▁alles	-2797
▁Just	-2798
schein	-2799
▁attention	-2800
ides	-2801
▁based	-2802
▁objectives	-2803
▁Grundlage	-2804
▁viol	-2805
▁erreichen	-2806
CO	-2807
▁enc	-2808
▁beim	-2809
züglich	-2810
▁Dank	-2811
ross	-2812
▁weiterhin	-2813
fehl	-2814
▁Ende	-2815
▁field	-2816
over	-2817
▁ple	-2818
▁Article	-2819
hing	-2820
▁hö	-2821
ness	-2822
▁conclus	-2823
ics	-2824
▁Frei	-2825
▁democratic	-2826
▁job	-2827
▁brauchen	-2828
▁amendment	-2829
▁begin	-2830
gang	-2831
▁seem	-2832
▁Amendment	-2833
▁Entscheidung	-2834
▁Millionen	-2835
▁fish	-2836
▁power	-2837
▁Kommissarin	-2838
▁bor	-2839
▁ebenfalls	-2840
▁ü	-2841
ode	-2842
▁Parte	-2843
▁Herren	-2844
▁bu	-2845
▁prec	-2846
▁mean	-2847
agen	-2848
▁mult	-2849
▁Verbess	-2850
▁aware	-2851
▁finden	-2852
▁happen	-2853
ziehungen	-2854
▁def	-2855
▁certainly	-2856
ppe	-2857
ffice	-2858
zeitig	-2859
▁implementation	-2860
▁Americ	-2861
▁benefit	-2862
▁With	-2863
▁Ziele	-2864
alled	-2865
▁La	-2866
gent	-2867
▁democracy	-2868
▁Wer	-2869
oten	-2870
▁Verfahren	-2871
rad	-2872
▁stellt	-2873
▁Vereinigten	-2874
▁pers	-2875
▁initiative	-2876
▁press	-2877
▁allgemein	-2878
ask	-2879
▁Schw	-2880
▁solche	-2881
verfahren	-2882
zuf	-2883
unter	-2884
▁sur	-2885
reten	-2886
ean	-2887
▁darum	-2888
utzen	-2889
enten	-2890
▁dort	-2891
brigen	-2892
▁hatte	-2893
fs	-2894
▁majority	-2895
istan	-2896
▁avail	-2897
ency	-2898
ceed	-2899
▁Binnen	-2900
▁Afr	-2901
▁doc	-2902
astr	-2903
▁ermö	-2904
▁versuch	-2905
▁Regionen	-2906
▁würden	-2907
▁weitere	-2908
▁instrument	-2909
ller	-2910
▁Rück	-2911
▁business	-2912
▁Institutionen	-2913
has	-2914
schriften	-2915
haltung	-2916
ix	-2917
bour	-2918
▁Wor	-2919
▁verbess	-2920
▁loc	-2921
▁notwendig	-2922
icial	-2923
▁simply	-2924
eless	-2925
▁fully	-2926
▁genau	-2927
▁administr	-2928
erseits	-2929
▁Tagesordnung	-2930
▁objective	-2931
esellschaft	-2932
ateral	-2933
▁Vertre	-2934
ented	-2935
▁following	-2936
ritts	-2937
▁begrüß	-2938
▁Interess	-2939
ined	-2940
frage	-2941
▁schließ	-2942
▁document	-2943
▁fun	-2944
▁sprechen	-2945
▁gegeben	-2946
▁colleag	-2947
▁might	-2948
▁week	-2949
entliche	-2950
▁effective	-2951
▁efforts	-2952
lexib	-2953
▁Verf	-2954
idence	-2955
▁keinen	-2956
▁weniger	-2957
▁ern	-2958
▁entwick	-2959
▁sustain	-2960
akt	-2961
▁restr	-2962
▁liberal	-2963
▁Erach	-2964
▁Erachtens	-2965
ify	-2966
▁Konvent	-2967
▁zahl	-2968
▁particip	-2969
▁civil	-2970
▁innerhalb	-2971
teid	-2972
▁Span	-2973
▁First	-2974
▁Dienst	-2975
▁WTO	-2976
▁energy	-2977
örderung	-2978
wirkungen	-2979
▁wichtige	-2980
▁statement	-2981
▁Zugang	-2982
▁period	-2983
leis	-2984
▁men	-2985
▁2004	-2986
com	-2987
letz	-2988
▁künft	-2989
▁Gebiet	-2990
▁complete	-2991
▁13	-2992
▁free	-2993
gesetzt	-2994
ffentlich	-2995
▁Struktur	-2996
sto	-2997
ilateral	-2998
mut	-2999
▁Gemeinsam	-3000
haps	-3001
▁strategy	-3002
bereit	-3003
▁developing	-3004
▁creat	-3005
▁indem	-3006
▁besser	-3007
▁Verpflicht	-3008
▁often	-3009
dam	-3010
▁Part	-3011
verständlich	-3012
▁mind	-3013
▁Gemeinschafts	-3014
▁teil	-3015
▁vielleicht	-3016
▁apply	-3017
▁Krit	-3018
▁halte	-3019
so	-3020
▁upon	-3021
▁ben	-3022
▁opt	-3023
▁voted	-3024
▁Wirtschafts	-3025
ären	-3026
ove	-3027
iges	-3028
▁obl	-3029
immungen	-3030
▁force	-3031
▁gemacht	-3032
riminal	-3033
▁individual	-3034
▁economy	-3035
▁educ	-3036
ners	-3037
▁Woch	-3038
▁Pre	-3039
onger	-3040
▁strengt	-3041
▁hinsichtlich	-3042
▁agreements	-3043
▁increasing	-3044
burg	-3045
▁solution	-3046
▁Lis	-3047
igration	-3048
▁Rei	-3049
▁nehmen	-3050
▁disk	-3051
▁Iraq	-3052
ingle	-3053
▁erziel	-3054
▁comprom	-3055
▁öffentlichen	-3056
▁einfach	-3057
▁Verhandlungen	-3058
old	-3059
▁Government	-3060
mals	-3061
vest	-3062
▁Organisation	-3063
gangenen	-3064
▁schaffen	-3065
weg	-3066
▁vorliegen	-3067
▁gehen	-3068
▁hig	-3069
vorschriften	-3070
▁anim	-3071
ialogue	-3072
▁Damen	-3073
▁System	-3074
▁vö	-3075
gern	-3076
▁Gew	-3077
▁programmes	-3078
kten	-3079
▁dessen	-3080
▁Informationen	-3081
▁hon	-3082
▁kind	-3083
▁farm	-3084
▁wenig	-3085
sitz	-3086
weis	-3087
▁Tür	-3088
drück	-3089
▁ear	-3090
▁seinen	-3091
▁Tag	-3092
round	-3093
▁seek	-3094
▁quality	-3095
ikt	-3096
▁Nat	-3097
▁ret	-3098
▁signific	-3099
asst	-3100
▁Sitz	-3101
▁Verwalt	-3102
▁Ir	-3103
isches	-3104
▁Auffassung	-3105
▁questions	-3106
▁tot	-3107
▁pop	-3108
gelung	-3109
▁bo	-3110
ommend	-3111
▁technolog	-3112
wur	-3113
ziehen	-3114
▁inn	-3115
▁Tats	-3116
▁meeting	-3117
▁ant	-3118
▁behand	-3119
▁care	-3120
▁conflic	-3121
ände	-3122
indest	-3123
▁others	-3124
ifiz	-3125
▁moment	-3126
▁Sub	-3127
▁pass	-3128
▁available	-3129
▁groups	-3130
▁äußerst	-3131
▁hätte	-3132
▁entscheiden	-3133
▁erwä	-3134
▁heißt	-3135
▁mentioned	-3136
orge	-3137
▁Binnenmarkt	-3138
rechts	-3139
▁25	-3140
▁schwier	-3141
twort	-3142
▁Interesse	-3143
▁coordin	-3144
yn	-3145
▁gar	-3146
▁Antwort	-3147
▁eigenen	-3148
altung	-3149
▁demon	-3150
▁ago	-3151
eder	-3152
▁weiß	-3153
▁recent	-3154
▁Energie	-3155
iellen	-3156
▁sogar	-3157
ourt	-3158
▁erreicht	-3159
ethod	-3160
lüs	-3161
ichen	-3162
▁Entschließung	-3163
▁meinen	-3164
inge	-3165
elves	-3166
zustellen	-3167
▁actually	-3168
fragen	-3169
▁Wieder	-3170
▁Mitte	-3171
▁exc	-3172
▁vorgesehen	-3173
▁vielen	-3174
▁My	-3175
▁eindeut	-3176
▁assess	-3177
▁Notwend	-3178
SE	-3179
urteil	-3180
fg	-3181
▁although	-3182
iver	-3183
osed	-3184
▁verschiedenen	-3185
▁thems	-3186
▁themselves	-3187
finden	-3188
▁candid	-3189
▁fisher	-3190
▁Pri	-3191
▁erinn	-3192
▁wohl	-3193
▁mot	-3194
lev	-3195
▁Anwendung	-3196
▁while	-3197
▁resul	-3198
▁Initiative	-3199
merksam	-3200
▁Beitrag	-3201
▁terrorism	-3202
jen	-3203
prü	-3204
▁Stellung	-3205
▁famil	-3206
▁responsible	-3207
▁Komprom	-3208
▁dist	-3209
▁cases	-3210
▁ann	-3211
ichtet	-3212
per	-3213
alien	-3214
▁Behörden	-3215
rieg	-3216
▁meines	-3217
▁Auswirkungen	-3218
eign	-3219
ultur	-3220
▁matters	-3221
▁monitor	-3222
▁dialogue	-3223
mäß	-3224
wan	-3225
▁Hier	-3226
/0	-3227
▁lack	-3228
▁Reihe	-3229
▁Rights	-3230
▁final	-3231
▁recommend	-3232
▁workers	-3233
▁Dire	-3234
ko	-3235
▁appropriate	-3236
fghan	-3237
▁Proj	-3238
▁funds	-3239
üh	-3240
ubt	-3241
▁Daher	-3242
less	-3243
▁allerdings	-3244
▁Erst	-3245
ächlich	-3246
fang	-3247
▁Für	-3248
▁sure	-3249
annten	-3250
▁joint	-3251
▁contain	-3252
▁Sicherheits	-3253
▁konn	-3254
▁Kontrolle	-3255
ived	-3256
▁sehen	-3257
its	-3258
▁Stabil	-3259
lim	-3260
äd	-3261
▁encour	-3262
▁create	-3263
cen	-3264
▁enter	-3265
▁Portug	-3266
▁Haushalt	-3267
▁Gipf	-3268
▁stärk	-3269
▁erforderlich	-3270
rotz	-3271
▁Bevölkerung	-3272
▁task	-3273
▁Chin	-3274
fordert	-3275
▁request	-3276
▁Court	-3277
▁method	-3278
ake	-3279
▁guarantee	-3280
▁Do	-3281
▁jeden	-3282
▁special	-3283
▁14	-3284
▁region	-3285
▁denke	-3286
▁parties	-3287
▁Geld	-3288
▁life	-3289
affung	-3290
▁Kosten	-3291
▁single	-3292
Office	-3293
▁legislative	-3294
abhäng	-3295
ritten	-3296
▁agricultural	-3297
▁Prozess	-3298
▁concerning	-3299
wh	-3300
folgen	-3301
▁emphas	-3302
▁tats	-3303
▁indeed	-3304
▁consequ	-3305
▁context	-3306
▁reports	-3307
▁line	-3308
▁management	-3309
ivers	-3310
▁eng	-3311
▁stud	-3312
▁ihm	-3313
itive	-3314
▁erklär	-3315
▁doing	-3316
▁unterstützt	-3317
▁fair	-3318
▁Beziehungen	-3319
schließend	-3320
stru	-3321
ination	-3322
▁strong	-3323
▁Finally	-3324
anger	-3325
▁aff	-3326
▁never	-3327
gency	-3328
setzen	-3329
lassen	-3330
▁though	-3331
▁Dialog	-3332
bt	-3333
▁erste	-3334
voll	-3335
deutet	-3336
▁months	-3337
▁Notwendigkeit	-3338
ugen	-3339
▁trad	-3340
wach	-3341
▁him	-3342
▁nächsten	-3343
▁ihrem	-3344
▁partners	-3345
▁Selbst	-3346
▁beit	-3347
▁humanit	-3348
▁currently	-3349
▁halten	-3350
▁schne	-3351
▁bre	-3352
igungs	-3353
▁draw	-3354
roffen	-3355
iens	-3356
vorsch	-3357
▁sag	-3358
▁standards	-3359
▁Terrorismus	-3360
▁wahr	-3361
ons	-3362
▁Prot	-3363
▁Invest	-3364
▁Qual	-3365
▁Bedingungen	-3366
▁Bekämpfung	-3367
ocus	-3368
▁Text	-3369
iken	-3370
▁Berichts	-3371
igin	-3372
▁ebenso	-3373
▁net	-3374
alle	-3375
auss	-3376
▁Aufgabe	-3377
▁könnten	-3378
äst	-3379
▁harmon	-3380
fortun	-3381
▁reasons	-3382
umente	-3383
▁diskut	-3384
aged	-3385
▁unterschied	-3386
av	-3387
atis	-3388
▁Interessen	-3389
▁Dieser	-3390
▁Ur	-3391
▁among	-3392
▁improve	-3393
▁eig	-3394
▁states	-3395
richtung	-3396
ativ	-3397
▁lab	-3398
▁erne	-3399
▁jeder	-3400
▁Fest	-3401
jenigen	-3402
ants	-3403
▁systems	-3404
griff	-3405
▁Zweit	-3406
▁verfü	-3407
▁proper	-3408
▁found	-3409
peten	-3410
▁Prior	-3411
schritte	-3412
▁Schaffung	-3413
▁You	-3414
legation	-3415
▁subsid	-3416
▁International	-3417
▁völlig	-3418
▁Verbesserung	-3419
älle	-3420
▁klein	-3421
▁Mehrheit	-3422
cell	-3423
▁Region	-3424
▁fail	-3425
▁Förderung	-3426
cies	-3427
▁sug	-3428
▁Arbeitsp	-3429
stum	-3430
mehr	-3431
▁protect	-3432
▁maintain	-3433
▁Überein	-3434
app	-3435
orth	-3436
▁Abkommen	-3437
leit	-3438
fonds	-3439
▁longer	-3440
▁zus	-3441
▁Stat	-3442
▁bisher	-3443
▁arbeit	-3444
▁Res	-3445
▁jud	-3446
ians	-3447
hend	-3448
utes	-3449
asser	-3450
▁Let	-3451
zunehmen	-3452
▁Schluss	-3453
▁bedeutet	-3454
ody	-3455
▁30	-3456
hnen	-3457
orted	-3458
▁versch	-3459
▁för	-3460
ringen	-3461
mor	-3462
anke	-3463
▁War	-3464
▁compromise	-3465
▁achieved	-3466
▁obs	-3467
▁euro	-3468
▁Beitritts	-3469
▁Ergebnis	-3470
staat	-3471
▁meinem	-3472
▁gute	-3473
ond	-3474
▁Kamp	-3475
▁Char	-3476
▁strengthen	-3477
▁local	-3478
▁zunächst	-3479
▁Präsidentschaft	-3480
▁bzw	-3481
▁aufgrund	-3482
imme	-3483
▁Forschung	-3484
lied	-3485
ott	-3486
▁Afghan	-3487
usst	-3488
▁cru	-3489
▁Erklärung	-3490
ünf	-3491
▁Aut	-3492
▁production	-3493
rete	-3494
▁disp	-3495
ches	-3496
ittle	-3497
legenheiten	-3498
▁qual	-3499
▁Agr	-3500
äs	-3501
worten	-3502
▁Second	-3503
▁education	-3504
▁mor	-3505
▁principles	-3506
▁prep	-3507
▁experien	-3508
▁Fortschritte	-3509
▁results	-3510
/2000	-3511
▁vers	-3512
öt	-3513
ünschen	-3514
))	-3515
▁terr	-3516
reiben	-3517
▁children	-3518
▁Nor	-3519
best	-3520
fficient	-3521
wurf	-3522
▁little	-3523
itim	-3524
atory	-3525
▁Dam	-3526
▁Beschäftigung	-3527
imum	-3528
▁mar	-3529
iffen	-3530
frastr	-3531
▁Landwirtschaft	-3532
▁gener	-3533
▁Leg	-3534
einander	-3535
▁organisations	-3536
trägen	-3537
leistet	-3538
▁congratulate	-3539
oss	-3540
ilung	-3541
key	-3542
oh	-3543
▁nothing	-3544
spruch	-3545
▁origin	-3546
▁ihn	-3547
▁Staats	-3548
▁focus	-3549
▁thing	-3550
chnolog	-3551
▁Position	-3552
▁bedeut	-3553
▁absolute	-3554
low	-3555
▁governments	-3556
▁past	-3557
atterin	-3558
▁caus	-3559
▁perhaps	-3560
▁Op	-3561
erman	-3562
eh	-3563
greifen	-3564
▁Kinder	-3565
▁Tod	-3566
ichten	-3567
▁item	-3568
▁wichtigen	-3569
▁significant	-3570
istischen	-3571
haft	-3572
▁Programm	-3573
▁Gesellschaft	-3574
aking	-3575
ize	-3576
ellen	-3577
▁she	-3578
▁due	-3579
▁gelten	-3580
▁communication	-3581
▁Prodi	-3582
▁Bereichen	-3583
▁Schritt	-3584
▁schwer	-3585
▁entire	-3586
isis	-3587
▁einzelnen	-3588
▁grundlegen	-3589
uc	-3590
▁initi	-3591
▁em	-3592
▁Diskussion	-3593
▁Konfl	-3594
▁folgen	-3595
▁keep	-3596
▁betra	-3597
▁agenda	-3598
▁gehört	-3599
▁relation	-3600
▁vis	-3601
ternal	-3602
▁Turkey	-3603
ieten	-3604
▁candidate	-3605
▁aspects	-3606
▁Irak	-3607
▁histor	-3608
wand	-3609
self	-3610
▁enough	-3611
zentr	-3612
hilfen	-3613
▁Tatsache	-3614
▁Wettbewerbs	-3615
pl	-3616
kei	-3617
rank	-3618
▁Kr	-3619
▁Luft	-3620
ators	-3621
morrow	-3622
▁tomorrow	-3623
outh	-3624
▁ph	-3625
▁crisis	-3626
▁tabled	-3627
▁Strategie	-3628
▁Dok	-3629
allen	-3630
gramm	-3631
riften	-3632
▁Social	-3633
baren	-3634
▁share	-3635
▁Als	-3636
frist	-3637
▁gestellt	-3638
more	-3639
▁Türkei	-3640
▁Leben	-3641
▁Arbeitnehmer	-3642
▁Mal	-3643
▁makes	-3644
▁Personen	-3645
itionen	-3646
▁intend	-3647
▁verhin	-3648
▁Vorsitz	-3649
▁erwar	-3650
arbeiten	-3651
▁Industrie	-3652
▁Dec	-3653
atast	-3654
▁water	-3655
atastrop	-3656
▁Vorschriften	-3657
▁nachhalt	-3658
vors	-3659
▁idea	-3660
▁military	-3661
▁ident	-3662
▁Pe	-3663
▁recogn	-3664
▁pur	-3665
▁Vereinbar	-3666
▁enthalten	-3667
prä	-3668
▁key	-3669
▁answer	-3670
iglich	-3671
oper	-3672
▁network	-3673
▁concl	-3674
gän	-3675
enken	-3676
selves	-3677
schluss	-3678
▁previous	-3679
gu	-3680
lt	-3681
ätigkeit	-3682
▁analy	-3683
hens	-3684
▁Agrar	-3685
▁Doch	-3686
▁costs	-3687
▁excell	-3688
til	-3689
setzung	-3690
▁growth	-3691
▁needed	-3692
cr	-3693
▁indic	-3694
▁bekannt	-3695
ingt	-3696
▁Party	-3697
iere	-3698
▁regards	-3699
▁true	-3700
▁comes	-3701
▁Verfü	-3702
▁cover	-3703
▁Regierungen	-3704
▁nam	-3705
▁agreed	-3706
▁enor	-3707
▁Flug	-3708
▁excellent	-3709
irc	-3710
▁Fä	-3711
▁morgen	-3712
ledge	-3713
▁link	-3714
▁activities	-3715
▁priority	-3716
pite	-3717
ingen	-3718
▁umfassen	-3719
aper	-3720
▁expect	-3721
▁soon	-3722
▁effic	-3723
▁road	-3724
▁Kön	-3725
ahn	-3726
▁commitment	-3727
▁angesichts	-3728
▁lediglich	-3729
▁soziale	-3730
atisf	-3731
wür	-3732
▁gesamten	-3733
▁eth	-3734
lands	-3735
▁führ	-3736
▁zie	-3737
▁safe	-3738
▁assist	-3739
sprozess	-3740
▁oblig	-3741
▁geschlossen	-3742
Fra	-3743
▁eas	-3744
▁circ	-3745
▁honour	-3746
▁ME	-3747
▁wobei	-3748
▁Aktion	-3749
▁Pol	-3750
▁challen	-3751
alu	-3752
ennung	-3753
▁Jan	-3754
▁sustainable	-3755
▁sett	-3756
gliche	-3757
▁richtig	-3758
▁sever	-3759
▁unver	-3760
pend	-3761
itten	-3762
▁discussion	-3763
▁unserem	-3764
▁Pra	-3765
▁ernst	-3766
▁Kultur	-3767
▁Transpar	-3768
▁erfü	-3769
▁Richtung	-3770
iled	-3771
▁Regierungs	-3772
angen	-3773
ennen	-3774
▁Programme	-3775
ürz	-3776
▁German	-3777
▁vergangenen	-3778
..	-3779
fert	-3780
/2002	-3781
▁sagte	-3782
▁findet	-3783
▁ourselves	-3784
cher	-3785
onen	-3786
fence	-3787
▁provided	-3788
auer	-3789
ully	-3790
▁impact	-3791
▁Secondly	-3792
fortunately	-3793
▁Democ	-3794
ences	-3795
▁projects	-3796
ästin	-3797
▁Ris	-3798
▁Geschäft	-3799
sens	-3800
konferenz	-3801
fre	-3802
▁seen	-3803
mitteln	-3804
▁Co	-3805
▁gefähr	-3806
▁Kraft	-3807
▁Conference	-3808
▁50	-3809
▁cla	-3810
▁funding	-3811
▁beg	-3812
▁Wo	-3813
▁Gelegenheit	-3814
alität	-3815
ulture	-3816
▁Seite	-3817
▁Angelegenheiten	-3818
▁Gefahr	-3819
rang	-3820
▁Nationen	-3821
▁presented	-3822
▁Kos	-3823
▁Uhr	-3824
fully	-3825
▁offer	-3826
maßnahmen	-3827
▁Kompromiss	-3828
iding	-3829
▁crucial	-3830
cel	-3831
▁purp	-3832
.)	-3833
▁continu	-3834
▁Sec	-3835
▁foreign	-3836
gungen	-3837
▁danger	-3838
▁gestimmt	-3839
▁setzen	-3840
▁extend	-3841
▁above	-3842
leistungen	-3843
atic	-3844
▁China	-3845
▁technical	-3846
▁verein	-3847
seit	-3848
▁poor	-3849
▁Our	-3850
▁include	-3851
▁Dritt	-3852
▁Rede	-3853
sprechen	-3854
folgt	-3855
legung	-3856
▁wirksam	-3857
▁contribution	-3858
▁vict	-3859
reiche	-3860
leiben	-3861
▁Empfehl	-3862
▁verw	-3863
▁carried	-3864
▁practice	-3865
side	-3866
▁comb	-3867
▁Palest	-3868
▁criter	-3869
▁Transparenz	-3870
inne	-3871
▁four	-3872
ückw	-3873
▁appear	-3874
kommens	-3875
▁Per	-3876
utzung	-3877
▁schein	-3878
▁seinem	-3879
▁Kampf	-3880
▁Mitteilung	-3881
lies	-3882
▁Verteid	-3883
▁prof	-3884
▁Integr	-3885
▁Zeitpunkt	-3886
▁Denn	-3887
▁promote	-3888
▁service	-3889
▁spiel	-3890
▁cent	-3891
▁Sicht	-3892
▁Rats	-3893
organisation	-3894
cken	-3895
plan	-3896
▁rest	-3897
ctions	-3898
langen	-3899
▁stress	-3900
heben	-3901
▁befür	-3902
▁Zweitens	-3903
▁bleiben	-3904
ims	-3905
hilfe	-3906
▁regarding	-3907
▁lange	-3908
▁institution	-3909
▁Swed	-3910
▁build	-3911
ush	-3912
most	-3913
lass	-3914
▁term	-3915
az	-3916
▁Polic	-3917
▁Nicht	-3918
▁illegal	-3919
▁Kap	-3920
iew	-3921
▁Mitglieder	-3922
▁procedures	-3923
▁provisions	-3924
stellt	-3925
▁Möglichkeiten	-3926
▁conv	-3927
▁consumers	-3928
▁blo	-3929
ielle	-3930
istic	-3931
▁Volks	-3932
▁vorgelegt	-3933
ither	-3934
▁turn	-3935
▁Internet	-3936
ährung	-3937
▁Afric	-3938
▁Sektor	-3939
▁gee	-3940
ckt	-3941
▁Bank	-3942
▁post	-3943
▁fordern	-3944
▁Krieg	-3945
handlung	-3946
▁unseres	-3947
erc	-3948
▁char	-3949
minister	-3950
▁Fr	-3951
▁Janu	-3952
▁undert	-3953
ober	-3954
▁low	-3955
▁Völk	-3956
▁miss	-3957
aut	-3958
▁fünf	-3959
ysteme	-3960
▁Aussch	-3961
by	-3962
arf	-3963
▁Ob	-3964
▁amb	-3965
▁San	-3966
hes	-3967
indung	-3968
▁Wach	-3969
▁star	-3970
▁dring	-3971
▁until	-3972
▁stage	-3973
▁fishing	-3974
▁Kont	-3975
▁genu	-3976
▁Koordin	-3977
▁beteil	-3978
wertung	-3979
▁repe	-3980
▁Wirk	-3981
hof	-3982
DE	-3983
ested	-3984
▁Weit	-3985
▁conflict	-3986
line	-3987
itäts	-3988
▁sense	-3989
▁Entscheidungen	-3990
▁cho	-3991
▁rail	-3992
▁Afghanistan	-3993
▁wider	-3994
▁gra	-3995
splan	-3996
▁transparency	-3997
▁Famil	-3998
▁markets	-3999
ffentlichkeit	-4000
bare	-4001
▁land	-4002
nissen	-4003
▁consumer	-4004
▁angem	-4005
tent	-4006
▁oft	-4007
▁private	-4008
bildung	-4009
▁Belg	-4010
▁Raum	-4011
formen	-4012
▁conne	-4013
unities	-4014
▁Themen	-4015
▁Öffentlichkeit	-4016
▁General	-4017
▁eingehen	-4018
▁etwa	-4019
▁suff	-4020
▁betroffen	-4021
zulegen	-4022
oung	-4023
▁dat	-4024
▁zusätz	-4025
▁genommen	-4026
ehen	-4027
imension	-4028
▁asked	-4029
▁gleichzeitig	-4030
▁Entschließungs	-4031
▁seems	-4032
▁stark	-4033
▁gebracht	-4034
▁response	-4035
▁macht	-4036
▁ground	-4037
▁balance	-4038
▁Vertra	-4039
▁erheb	-4040
▁Gemeinsamen	-4041
ell	-4042
▁several	-4043
bel	-4044
wegen	-4045
▁langu	-4046
▁hatten	-4047
▁tatsächlich	-4048
enntnis	-4049
▁Erstens	-4050
▁prakt	-4051
▁zweite	-4052
▁beschlossen	-4053
por	-4054
▁move	-4055
▁pat	-4056
Fraktion	-4057
weil	-4058
▁Erfolg	-4059
▁Geschäfts	-4060
▁16	-4061
▁Partner	-4062
▁EC	-4063
▁Fischerei	-4064
▁either	-4065
▁Punkte	-4066
▁Bas	-4067
▁vertreten	-4068
co	-4069
hung	-4070
▁Folgen	-4071
▁unterb	-4072
▁geführt	-4073
under	-4074
arbeitet	-4075
gebracht	-4076
▁reading	-4077
▁immigration	-4078
▁saying	-4079
▁Gewalt	-4080
aterial	-4081
▁verl	-4082
bon	-4083
▁getan	-4084
▁Policy	-4085
▁population	-4086
idel	-4087
oren	-4088
alten	-4089
▁tell	-4090
▁Meine	-4091
▁Eng	-4092
▁frü	-4093
▁clar	-4094
▁Verfügung	-4095
▁vern	-4096
▁Daten	-4097
▁Wes	-4098
leisten	-4099
part	-4100
mitted	-4101
gru	-4102
▁avo	-4103
▁gewährleisten	-4104
geln	-4105
▁begrüße	-4106
drücklich	-4107
▁Damit	-4108
▁broad	-4109
lätz	-4110
▁young	-4111
iers	-4112
▁solidar	-4113
▁held	-4114
▁everyone	-4115
▁heut	-4116
▁basic	-4117
▁liegen	-4118
▁analys	-4119
anges	-4120
cep	-4121
▁bel	-4122
▁Will	-4123
▁Sitzung	-4124
▁expressed	-4125
geleg	-4126
ommun	-4127
▁required	-4128
gument	-4129
ins	-4130
▁doubt	-4131
▁stimmen	-4132
fft	-4133
▁Gründen	-4134
go	-4135
▁Groß	-4136
▁Bemerk	-4137
▁akt	-4138
ending	-4139
▁übrigen	-4140
▁colleagues	-4141
▁Zus	-4142
▁bitte	-4143
▁leider	-4144
▁fördern	-4145
▁18	-4146
▁Kosov	-4147
▁Thank	-4148
▁schnell	-4149
erve	-4150
▁Beteil	-4151
▁Steuer	-4152
▁accession	-4153
▁Einführung	-4154
▁Kommissions	-4155
▁quick	-4156
▁actions	-4157
▁integration	-4158
▁verstär	-4159
▁begrüßen	-4160
Pro	-4161
▁Bestimmungen	-4162
'.	-4163
arian	-4164
gewiesen	-4165
▁Summit	-4166
▁Further	-4167
▁budgetary	-4168
▁Änderung	-4169
▁betreffen	-4170
▁nature	-4171
▁prepar	-4172
▁Nov	-4173
arbeitung	-4174
ösen	-4175
▁fisheries	-4176
schließlich	-4177
edi	-4178
▁Brit	-4179
▁ble	-4180
forderungen	-4181
▁refle	-4182
▁satisf	-4183
▁ten	-4184
stell	-4185
▁Vers	-4186
▁vier	-4187
▁großer	-4188
▁differen	-4189
hrte	-4190
▁Augen	-4191
▁movement	-4192
▁Zum	-4193
▁suggest	-4194
▁Abgeordnete	-4195
▁Wachstum	-4196
ift	-4197
vorsitz	-4198
▁eindeutig	-4199
▁dise	-4200
▁Angelegenheit	-4201
5-01	-4202
tell	-4203
▁One	-4204
stead	-4205
▁pa	-4206
ühungen	-4207
▁Prinzip	-4208
nehm	-4209
stren	-4210
frei	-4211
▁Erzeug	-4212
lemented	-4213
rats	-4214
▁Les	-4215
▁fort	-4216
ilität	-4217
▁legitim	-4218
▁pack	-4219
▁beh	-4220
▁labour	-4221
verb	-4222
▁Initi	-4223
▁zuständ	-4224
▁existing	-4225
▁November	-4226
legt	-4227
▁application	-4228
▁Fern	-4229
ült	-4230
aging	-4231
ienen	-4232
▁everything	-4233
ured	-4234
staaten	-4235
▁Bürgern	-4236
ona	-4237
▁Instrument	-4238
ziehung	-4239
oy	-4240
pf	-4241
▁bestimmte	-4242
ylum	-4243
▁altern	-4244
▁prepared	-4245
▁called	-4246
▁closed	-4247
wanderung	-4248
▁pleased	-4249
▁Ergebnisse	-4250
▁Abschließend	-4251
▁Schiff	-4252
▁critic	-4253
▁Vertreter	-4254
hern	-4255
▁attack	-4256
▁obvious	-4257
üd	-4258
ends	-4259
reiten	-4260
▁respe	-4261
▁solchen	-4262
▁Den	-4263
verty	-4264
▁poverty	-4265
▁raised	-4266
▁europäischer	-4267
folge	-4268
okoll	-4269
▁Außer	-4270
▁consult	-4271
haupt	-4272
▁verab	-4273
▁berücksichtigt	-4274
▁Nr	-4275
läss	-4276
▁corre	-4277
▁intens	-4278
▁Stabilität	-4279
▁Spra	-4280
▁Handels	-4281
▁mass	-4282
▁suffer	-4283
▁Gru	-4284
▁pot	-4285
▁Aspekte	-4286
▁aufgenommen	-4287
ec	-4288
▁Plen	-4289
▁throughout	-4290
ands	-4291
zeichnet	-4292
acc	-4293
▁wesentlich	-4294
▁komp	-4295
gerungen	-4296
▁17	-4297
▁relev	-4298
▁decided	-4299
▁Beschluss	-4300
▁tragen	-4301
lant	-4302
▁21	-4303
▁head	-4304
▁bevor	-4305
▁Inform	-4306
▁criteria	-4307
will	-4308
▁highl	-4309
▁Prä	-4310
ästinens	-4311
▁Leit	-4312
▁namely	-4313
▁farmers	-4314
rief	-4315
fähigkeit	-4316
▁Lin	-4317
▁Kosovo	-4318
▁training	-4319
▁voting	-4320
▁fast	-4321
loyment	-4322
geschlossen	-4323
▁Min	-4324
▁asylum	-4325
mü	-4326
liches	-4327
▁Dinge	-4328
▁angesprochen	-4329
▁fr	-4330
▁When	-4331
▁erster	-4332
▁Schwier	-4333
▁requirements	-4334
rench	-4335
▁data	-4336
▁changes	-4337
▁weiteren	-4338
igte	-4339
uclear	-4340
etzungen	-4341
▁consequences	-4342
ieht	-4343
ifel	-4344
uly	-4345
▁erfolg	-4346
▁genannten	-4347
▁regulations	-4348
▁hard	-4349
▁Sinne	-4350
olution	-4351
▁inst	-4352
▁eigentlich	-4353
▁bleibt	-4354
▁profit	-4355
ücht	-4356
▁Kons	-4357
▁equal	-4358
▁nutzen	-4359
zeichne	-4360
▁initiatives	-4361
▁list	-4362
▁heraus	-4363
▁Ant	-4364
▁approved	-4365
bs	-4366
hlen	-4367
▁hätten	-4368
▁Nations	-4369
▁leisten	-4370
▁Palestin	-4371
▁Organ	-4372
▁whose	-4373
▁sufficient	-4374
▁waste	-4375
abon	-4376
laub	-4377
▁einges	-4378
iet	-4379
nern	-4380
▁danke	-4381
▁einzu	-4382
▁fell	-4383
▁Asyl	-4384
▁Vorauss	-4385
▁regret	-4386
▁Qualität	-4387
▁Grundsatz	-4388
▁included	-4389
▁Lebensmittel	-4390
li	-4391
▁rad	-4392
▁persön	-4393
▁Anfrage	-4394
government	-4395
▁ermöglichen	-4396
asch	-4397
▁along	-4398
▁Dieses	-4399
▁meisten	-4400
▁times	-4401
wogen	-4402
▁reached	-4403
▁relating	-4404
▁purs	-4405
Europ	-4406
▁flexib	-4407
▁Finanzierung	-4408
▁infl	-4409
▁Regelung	-4410
▁Tat	-4411
isieren	-4412
▁Lesung	-4413
▁Zunächst	-4414
▁Bemühungen	-4415
/2001)	-4416
ibe	-4417
chter	-4418
▁French	-4419
▁keiner	-4420
▁cultural	-4421
ires	-4422
iterr	-4423
▁ö	-4424
issabon	-4425
iterran	-4426
▁allein	-4427
▁according	-4428
▁arbeiten	-4429
▁established	-4430
▁assoc	-4431
▁leben	-4432
griffen	-4433
bet	-4434
▁run	-4435
▁determ	-4436
▁Bildung	-4437
▁verbessern	-4438
▁light	-4439
▁Lissabon	-4440
▁beha	-4441
ilities	-4442
isely	-4443
zusch	-4444
▁Armut	-4445
▁close	-4446
sicherheit	-4447
▁Lisbon	-4448
▁Anstren	-4449
▁vere	-4450
▁Wel	-4451
5-00	-4452
sehen	-4453
▁note	-4454
▁remind	-4455
hrist	-4456
▁internationale	-4457
▁France	-4458
▁around	-4459
▁stability	-4460
ämt	-4461
▁NA	-4462
gebung	-4463
produ	-4464
celona	-4465
ester	-4466
▁rule	-4467
derungen	-4468
▁representatives	-4469
▁Tier	-4470
ograph	-4471
▁demonstr	-4472
idelines	-4473
▁Integration	-4474
▁Mär	-4475
▁Solidar	-4476
▁Män	-4477
governmental	-4478
▁Furthermore	-4479
▁mer	-4480
▁Barcelona	-4481
▁folgt	-4482
▁derart	-4483
▁Außerdem	-4484
▁Freiheit	-4485
▁Informations	-4486
▁coordination	-4487
▁capac	-4488
▁erneut	-4489
▁immedi	-4490
▁values	-4491
▁interess	-4492
arch	-4493
▁spee	-4494
▁extent	-4495
▁sum	-4496
lik	-4497
orr	-4498
kennen	-4499
▁obwohl	-4500
ession	-4501
▁happ	-4502
würd	-4503
▁Sache	-4504
▁official	-4505
erikan	-4506
▁scient	-4507
▁bl	-4508
▁Forderung	-4509
▁Regional	-4510
hörde	-4511
▁Last	-4512
▁Arbeitsplätz	-4513
äuf	-4514
ract	-4515
▁restrict	-4516
änger	-4517
▁export	-4518
▁Annahme	-4519
▁verbunden	-4520
▁May	-4521
▁rein	-4522
open	-4523
▁prü	-4524
▁Austr	-4525
▁Richtlinien	-4526
▁verg	-4527
▁akzeptieren	-4528
▁external	-4529
▁Konferenz	-4530
▁berücksichtigen	-4531
▁hear	-4532
▁reject	-4533
▁completely	-4534
▁except	-4535
▁durchge	-4536
ifically	-4537
▁hinweisen	-4538
▁beitragen	-4539
▁zumindest	-4540
▁port	-4541
oint	-4542
▁weder	-4543
▁1998	-4544
▁Haupt	-4545
▁cause	-4546
▁Erfahr	-4547
▁enable	-4548
▁implemented	-4549
▁Verpflichtungen	-4550
ban	-4551
▁Human	-4552
▁amount	-4553
ison	-4554
▁facil	-4555
▁using	-4556
▁Patten	-4557
iting	-4558
▁wegen	-4559
▁exam	-4560
▁assistance	-4561
▁Hö	-4562
▁Präsidenten	-4563
▁wirtschaftliche	-4564
▁Frank	-4565
theless	-4566
▁unabhäng	-4567
▁vollständ	-4568
PE	-4569
raf	-4570
▁verd	-4571
▁honourable	-4572
▁More	-4573
▁monitoring	-4574
▁Heraus	-4575
▁einheit	-4576
gesamt	-4577
zös	-4578
▁Sport	-4579
▁Vereinten	-4580
▁dest	-4581
▁gerecht	-4582
▁live	-4583
▁tradition	-4584
conomic	-4585
iterranean	-4586
leben	-4587
▁hoch	-4588
▁word	-4589
gelt	-4590
▁conclusion	-4591
▁Mor	-4592
/2003	-4593
teilen	-4594
werk	-4595
▁levels	-4596
▁presidency	-4597
▁Kenntnis	-4598
▁poll	-4599
▁fellow	-4600
za	-4601
teile	-4602
▁priorities	-4603
▁ban	-4604
▁Antrag	-4605
▁schließlich	-4606
▁review	-4607
▁pressure	-4608
▁community	-4609
isiert	-4610
▁left	-4611
▁Dokument	-4612
▁Gerichts	-4613
ünst	-4614
▁Zustimmung	-4615
▁verhindern	-4616
▁anderer	-4617
ftrag	-4618
▁jobs	-4619
▁Landes	-4620
▁ship	-4621
▁powers	-4622
▁Schwierigkeiten	-4623
▁abge	-4624
denken	-4625
▁König	-4626
▁behandelt	-4627
erweise	-4628
arta	-4629
▁cred	-4630
▁Anstrengungen	-4631
▁Dez	-4632
▁Spanish	-4633
▁top	-4634
▁Miss	-4635
▁solidarity	-4636
achten	-4637
▁crime	-4638
hem	-4639
hagen	-4640
chanis	-4641
▁trotz	-4642
▁else	-4643
▁gefordert	-4644
▁Deut	-4645
▁talking	-4646
rok	-4647
▁che	-4648
▁absolutely	-4649
▁ty	-4650
▁improvement	-4651
▁Balk	-4652
▁five	-4653
▁innov	-4654
▁Grenzen	-4655
▁Woche	-4656
▁defence	-4657
▁erinnern	-4658
▁hold	-4659
▁elections	-4660
▁Nie	-4661
▁woll	-4662
▁East	-4663
▁practical	-4664
xis	-4665
▁beschäft	-4666
▁verantwort	-4667
▁wa	-4668
wendet	-4669
▁affect	-4670
▁guidelines	-4671
▁death	-4672
▁begl	-4673
▁Portugal	-4674
▁Liberalisierung	-4675
▁delay	-4676
▁recently	-4677
▁accep	-4678
▁Ansatz	-4679
▁quickly	-4680
pid	-4681
trächt	-4682
▁creation	-4683
ärm	-4684
▁Pat	-4685
▁Gar	-4686
▁try	-4687
▁beglückw	-4688
ief	-4689
just	-4690
stra	-4691
▁getro	-4692
▁Handel	-4693
▁nuclear	-4694
▁Beihilfen	-4695
▁precisely	-4696
zif	-4697
▁Dabei	-4698
▁pen	-4699
lling	-4700
▁führt	-4701
aat	-4702
▁cut	-4703
▁investment	-4704
▁sämt	-4705
▁justice	-4706
forms	-4707
▁bear	-4708
handel	-4709
▁value	-4710
▁Therefore	-4711
▁Plan	-4712
agraph	-4713
▁reduce	-4714
fahrens	-4715
▁Verkehrs	-4716
pre	-4717
ändert	-4718
▁Hinsicht	-4719
▁Zuständ	-4720
▁total	-4721
▁received	-4722
chs	-4723
▁span	-4724
emb	-4725
▁lear	-4726
▁formul	-4727
▁modern	-4728
▁mut	-4729
▁welt	-4730
▁zeigt	-4731
äter	-4732
▁Acht	-4733
▁across	-4734
▁Haltung	-4735
▁40	-4736
▁scope	-4737
▁proceed	-4738
▁violence	-4739
▁mob	-4740
▁getroffen	-4741
▁Druck	-4742
merksamkeit	-4743
wes	-4744
tragen	-4745
▁takes	-4746
▁giving	-4747
▁bestimmten	-4748
▁dut	-4749
▁Aufmerksamkeit	-4750
▁Stud	-4751
▁Stelle	-4752
änden	-4753
▁Vertrags	-4754
▁Verteidigung	-4755
umst	-4756
führen	-4757
▁disas	-4758
ilar	-4759
▁11.	-4760
▁criminal	-4761
▁Verfassung	-4762
ande	-4763
▁relig	-4764
▁versuchen	-4765
▁grat	-4766
▁return	-4767
▁höch	-4768
▁condem	-4769
andidaten	-4770
erkennung	-4771
▁krit	-4772
▁occas	-4773
iveness	-4774
▁Völker	-4775
▁Nos	-4776
▁gere	-4777
▁becom	-4778
bericht	-4779
sk	-4780
durch	-4781
▁direction	-4782
ana	-4783
▁thus	-4784
▁constit	-4785
▁NATO	-4786
▁erhö	-4787
▁gemäß	-4788
▁almost	-4789
ys	-4790
▁Ph	-4791
rechend	-4792
ciliation	-4793
▁capacity	-4794
sibilities	-4795
▁Directive	-4796
▁Konflikt	-4797
▁discussed	-4798
▁ill	-4799
▁zehn	-4800
hoben	-4801
▁victims	-4802
▁Monaten	-4803
▁accordance	-4804
▁demokratischen	-4805
ugend	-4806
▁mess	-4807
▁applied	-4808
▁potential	-4809
▁reality	-4810
▁connection	-4811
liz	-4812
▁recon	-4813
▁ständ	-4814
AP	-4815
▁oil	-4816
standen	-4817
▁Schließ	-4818
idd	-4819
▁Waffen	-4820
▁Parteien	-4821
▁provision	-4822
sätze	-4823
met	-4824
zusetzen	-4825
▁behind	-4826
▁Zivil	-4827
▁took	-4828
▁knowledge	-4829
▁bi	-4830
▁une	-4831
▁evalu	-4832
▁threat	-4833
▁Ratsvorsitz	-4834
ij	-4835
▁Gipfel	-4836
accept	-4837
stre	-4838
▁emer	-4839
▁despite	-4840
pril	-4841
▁gleichen	-4842
1)	-4843
▁Kom	-4844
▁face	-4845
▁Wasser	-4846
▁increased	-4847
▁considered	-4848
▁sectors	-4849
bedingungen	-4850
ünsch	-4851
▁Auss	-4852
▁experience	-4853
▁six	-4854
▁thanks	-4855
5-02	-4856
▁April	-4857
▁By	-4858
▁geschaffen	-4859
▁Sorge	-4860
▁Seiten	-4861
ym	-4862
▁Ass	-4863
▁brought	-4864
▁away	-4865
▁unaccept	-4866
abel	-4867
ffnung	-4868
gesellschaft	-4869
▁zweiten	-4870
▁reference	-4871
/2	-4872
▁fran	-4873
▁bestät	-4874
▁recognis	-4875
▁bewusst	-4876
▁specifically	-4877
▁darstellt	-4878
üng	-4879
30	-4880
erb	-4881
▁Ide	-4882
▁Einz	-4883
▁Mitgliedstaat	-4884
▁Tr	-4885
istische	-4886
▁Frankreich	-4887
amm	-4888
▁Tra	-4889
▁unbed	-4890
ierenden	-4891
▁Anerkennung	-4892
ets	-4893
abkommen	-4894
▁wiederhol	-4895
ption	-4896
ärkung	-4897
▁opportunities	-4898
▁Ky	-4899
itting	-4900
▁Aufgaben	-4901
▁Can	-4902
elten	-4903
▁Stellungnahme	-4904
▁gesamte	-4905
oden	-4906
kontro	-4907
▁instruments	-4908
▁vorliegenden	-4909
üt	-4910
uten	-4911
anced	-4912
▁stated	-4913
missions	-4914
meer	-4915
aden	-4916
▁mis	-4917
▁prüfen	-4918
▁capital	-4919
▁endlich	-4920
(200	-4921
fälle	-4922
rifft	-4923
▁avoid	-4924
ässt	-4925
▁relevant	-4926
▁World	-4927
▁scheint	-4928
▁fal	-4929
▁sorgen	-4930
▁funktion	-4931
▁gegenwärtig	-4932
▁Lassen	-4933
▁militär	-4934
▁Wahr	-4935
▁limit	-4936
▁ever	-4937
lägen	-4938
gelegten	-4939
▁substant	-4940
▁discrimin	-4941
vorschlag	-4942
▁Opfer	-4943
EN	-4944
▁MEP	-4945
ourcen	-4946
acy	-4947
erungen	-4948
▁assessment	-4949
imb	-4950
udge	-4951
▁unacceptable	-4952
▁coming	-4953
▁bemü	-4954
▁Regeln	-4955
▁liberalisation	-4956
▁Schul	-4957
▁conclusions	-4958
ocol	-4959
ously	-4960
▁propose	-4961
▁Königreich	-4962
üssel	-4963
ützen	-4964
▁kleinen	-4965
▁Absatz	-4966
▁effects	-4967
▁Amendments	-4968
hren	-4969
onnen	-4970
▁Vermitt	-4971
▁refuge	-4972
▁stärker	-4973
▁wichtiger	-4974
▁borders	-4975
▁constru	-4976
▁französ	-4977
▁san	-4978
▁Staat	-4979
▁Gesundheits	-4980
▁sex	-4981
▁sus	-4982
▁Durchführung	-4983
▁Quest	-4984
▁Bef	-4985
grenz	-4986
▁Flücht	-4987
▁respond	-4988
lare	-4989
eschrän	-4990
▁öffentliche	-4991
▁normal	-4992
▁Untersuch	-4993
▁konkrete	-4994
▁Tätigkeit	-4995
kraft	-4996
▁pension	-4997
ood	-4998
tempt	-4999
▁participation	-5000
▁sort	-5001
▁konzentr	-5002
▁administrative	-5003
▁Lam	-5004
▁discussions	-5005
este	-5006
▁Betrie	-5007
▁diejenigen	-5008
▁animal	-5009
ron	-5010
▁content	-5011
▁correct	-5012
iddle	-5013
▁Wert	-5014
▁competen	-5015
▁Darüber	-5016
schließen	-5017
▁weltweit	-5018
▁festgelegt	-5019
son	-5020
ests	-5021
▁Ital	-5022
ussels	-5023
▁circumst	-5024
▁entsprechenden	-5025
äus	-5026
buch	-5027
ublik	-5028
▁sinn	-5029
▁nimmt	-5030
▁bezüglich	-5031
▁Justice	-5032
jahr	-5033
▁fl	-5034
▁date	-5035
▁vergessen	-5036
▁possibility	-5037
▁Fällen	-5038
▁irgend	-5039
▁confirm	-5040
▁fig	-5041
▁days	-5042
▁Kriterien	-5043
▁ine	-5044
▁Fahr	-5045
▁Linie	-5046
▁Partei	-5047
▁December	-5048
LA	-5049
▁Imp	-5050
zuführen	-5051
▁extra	-5052
▁events	-5053
▁Koordinierung	-5054
▁parliamentary	-5055
▁reforms	-5056
reff	-5057
arily	-5058
etary	-5059
▁spezie	-5060
▁comments	-5061
▁Budget	-5062
▁Änderungen	-5063
▁camp	-5064
uellen	-5065
vo	-5066
ume	-5067
▁Russia	-5068
▁gesprochen	-5069
▁gemeinschaft	-5070
▁guten	-5071
izza	-5072
▁Brussels	-5073
dere	-5074
endit	-5075
▁Cons	-5076
▁self	-5077
▁effiz	-5078
▁hinter	-5079
▁Firstly	-5080
▁heard	-5081
▁hingewiesen	-5082
▁old	-5083
▁carry	-5084
▁Dezember	-5085
▁contr	-5086
openhagen	-5087
▁transparent	-5088
▁Meiner	-5089
▁1.	-5090
▁mensch	-5091
10	-5092
hnung	-5093
▁konnte	-5094
▁kulture	-5095
▁Berichte	-5096
▁Einwanderung	-5097
▁Rom	-5098
ließen	-5099
▁brief	-5100
▁referred	-5101
haben	-5102
▁Environment	-5103
▁huge	-5104
▁jüng	-5105
▁Netz	-5106
▁prot	-5107
▁circumstances	-5108
isc	-5109
ürger	-5110
▁cross	-5111
wirken	-5112
▁dringend	-5113
▁expla	-5114
▁feststellen	-5115
OM	-5116
▁unan	-5117
▁considerable	-5118
lüsse	-5119
▁bitten	-5120
▁offens	-5121
ucht	-5122
▁obtain	-5123
▁Brüssel	-5124
ots	-5125
▁outside	-5126
▁ergreifen	-5127
▁insgesamt	-5128
▁überhaupt	-5129
▁gab	-5130
▁detail	-5131
ichtlich	-5132
▁Beitritt	-5133
▁agriculture	-5134
▁authority	-5135
anze	-5136
▁Grunde	-5137
krä	-5138
inden	-5139
▁schle	-5140
tel	-5141
▁Wissen	-5142
▁diesbe	-5143
sterreich	-5144
▁finanziellen	-5145
▁Kl	-5146
imate	-5147
▁myself	-5148
▁Verwendung	-5149
▁Of	-5150
▁länd	-5151
▁type	-5152
▁family	-5153
▁model	-5154
▁additional	-5155
lauf	-5156
rift	-5157
▁supported	-5158
▁Straf	-5159
▁Initiativen	-5160
▁Menschenrechts	-5161
ffected	-5162
öst	-5163
▁dom	-5164
▁observ	-5165
▁price	-5166
▁trying	-5167
▁Schlussfol	-5168
▁jedem	-5169
sterdam	-5170
▁Transport	-5171
▁accepted	-5172
▁Abschluss	-5173
▁treatment	-5174
eg	-5175
gült	-5176
▁überw	-5177
esterday	-5178
▁Protokoll	-5179
▁Bl	-5180
▁appe	-5181
▁tim	-5182
▁Ihrer	-5183
▁Priv	-5184
wenden	-5185
▁condemn	-5186
),	-5187
bahn	-5188
▁Ged	-5189
▁difficulties	-5190
▁frei	-5191
▁Charter	-5192
uted	-5193
▁Koh	-5194
auern	-5195
schätz	-5196
▁beant	-5197
teilung	-5198
▁American	-5199
assungs	-5200
olitischen	-5201
▁Kern	-5202
▁prim	-5203
gehend	-5204
▁cohes	-5205
▁stets	-5206
▁geleistet	-5207
▁abst	-5208
▁Kommun	-5209
▁Amsterdam	-5210
▁creating	-5211
▁Investitionen	-5212
▁consideration	-5213
▁ign	-5214
fordern	-5215
▁II	-5216
ighted	-5217
▁lässt	-5218
▁bekommen	-5219
utzt	-5220
▁jen	-5221
ister	-5222
▁sour	-5223
ensions	-5224
▁Security	-5225
ktr	-5226
▁ziehen	-5227
▁purpose	-5228
strumente	-5229
here	-5230
▁incor	-5231
schlossen	-5232
ums	-5233
▁affected	-5234
▁durchaus	-5235
fluss	-5236
rants	-5237
▁erzielt	-5238
▁treffen	-5239
▁ko	-5240
',	-5241
quate	-5242
▁enthält	-5243
usion	-5244
▁dadurch	-5245
▁Solidarität	-5246
▁wan	-5247
▁Nun	-5248
ünsche	-5249
▁forms	-5250
ienste	-5251
▁sieht	-5252
▁side	-5253
▁Grundrechte	-5254
mitglie	-5255
velopment	-5256
▁gewor	-5257
▁Kollege	-5258
▁wissenschaft	-5259
industrie	-5260
▁art	-5261
▁Vielen	-5262
▁animals	-5263
ulf	-5264
▁leaders	-5265
▁entwickeln	-5266
▁Agre	-5267
▁half	-5268
▁central	-5269
▁Nizza	-5270
▁spielen	-5271
▁Familien	-5272
▁vorgeschlagenen	-5273
▁gewesen	-5274
▁author	-5275
▁summit	-5276
pflich	-5277
▁staff	-5278
▁Agreement	-5279
ging	-5280
▁sup	-5281
▁separ	-5282
▁finally	-5283
ugs	-5284
▁Falle	-5285
▁enorm	-5286
▁Prioritäten	-5287
▁Ort	-5288
falt	-5289
▁Nord	-5290
▁Nice	-5291
unsch	-5292
▁overall	-5293
▁Ad	-5294
▁jedes	-5295
▁Fortsch	-5296
▁encourage	-5297
Os	-5298
llos	-5299
▁Gal	-5300
▁Sad	-5301
▁comment	-5302
Be	-5303
orgung	-5304
▁verurteil	-5305
je	-5306
▁Natur	-5307
▁hoffen	-5308
▁vital	-5309
gere	-5310
▁freue	-5311
▁attempt	-5312
▁möchten	-5313
EC	-5314
uz	-5315
handen	-5316
▁häuf	-5317
▁plann	-5318
-0	-5319
anzen	-5320
lier	-5321
omat	-5322
▁billion	-5323
▁bestehenden	-5324
mark	-5325
▁allowed	-5326
arte	-5327
uren	-5328
zieht	-5329
oto	-5330
▁ord	-5331
fu	-5332
indet	-5333
▁Mark	-5334
▁brit	-5335
▁weap	-5336
▁safegu	-5337
▁Absicht	-5338
▁Einsatz	-5339
▁plans	-5340
pendent	-5341
▁measure	-5342
▁einzige	-5343
▁Justiz	-5344
▁cohesion	-5345
▁verpflich	-5346
cke	-5347
▁lok	-5348
udgets	-5349
▁Praxis	-5350
▁Organisationen	-5351
frieden	-5352
▁genuine	-5353
▁heutigen	-5354
▁documents	-5355
▁untern	-5356
▁intended	-5357
ux	-5358
ietet	-5359
▁uner	-5360
▁impos	-5361
▁Risik	-5362
▁developed	-5363
▁angemessen	-5364
▁trag	-5365
▁National	-5366
▁wichtigsten	-5367
▁versucht	-5368
▁Natürlich	-5369
▁Regulation	-5370
▁motion	-5371
▁Vorbereit	-5372
ügen	-5373
▁Now	-5374
▁van	-5375
verkehrs	-5376
▁br	-5377
utter	-5378
▁Unsere	-5379
▁minister	-5380
▁vol	-5381
▁ermögl	-5382
ktivitäten	-5383
▁unbedingt	-5384
▁verstehen	-5385
▁Verwaltung	-5386
iter	-5387
igungen	-5388
▁wanted	-5389
bezogen	-5390
▁Africa	-5391
▁verk	-5392
▁Dro	-5393
▁status	-5394
▁Sa	-5395
▁goes	-5396
▁liebe	-5397
▁urgent	-5398
dom	-5399
▁damage	-5400
▁rightly	-5401
llschaften	-5402
▁Iran	-5403
que	-5404
▁instead	-5405
▁humanitarian	-5406
ynam	-5407
▁Ire	-5408
▁medium	-5409
▁zentral	-5410
▁ausgezeichne	-5411
eken	-5412
▁Eisen	-5413
▁Vertrauen	-5414
▁stop	-5415
zeugen	-5416
▁Aller	-5417
▁Straß	-5418
▁Einzel	-5419
▁Schließlich	-5420
▁entschieden	-5421
▁Jun	-5422
▁Jugend	-5423
▁efficient	-5424
▁confidence	-5425
▁design	-5426
▁anything	-5427
uern	-5428
bourg	-5429
▁risks	-5430
▁speed	-5431
▁Regelungen	-5432
▁Palestinian	-5433
St	-5434
▁fri	-5435
▁Einigung	-5436
▁ermöglicht	-5437
▁BSE	-5438
omb	-5439
▁stock	-5440
▁unanim	-5441
▁accident	-5442
▁erwarten	-5443
▁structural	-5444
ktions	-5445
▁Spiel	-5446
▁Republic	-5447
▁Behandlung	-5448
bank	-5449
head	-5450
wise	-5451
▁People	-5452
▁beginning	-5453
▁Laeken	-5454
▁Verwaltungs	-5455
▁Ireland	-5456
spekt	-5457
unkten	-5458
chnungs	-5459
▁Fraktionen	-5460
▁Von	-5461
haus	-5462
▁big	-5463
▁Fehl	-5464
dienst	-5465
system	-5466
unktion	-5467
▁amerikan	-5468
▁„	-5469
teilt	-5470
▁Minder	-5471
▁effekt	-5472
stat	-5473
unch	-5474
▁dealing	-5475
ategor	-5476
▁exerc	-5477
▁beschrän	-5478
▁desire	-5479
▁minimum	-5480
nungs	-5481
▁Bild	-5482
▁views	-5483
▁Anfang	-5484
▁demands	-5485
▁,	-5486
▁staat	-5487
ulierung	-5488
▁America	-5489
▁Deutsch	-5490
▁zustimmen	-5491
schw	-5492
▁scientific	-5493
reign	-5494
▁anzu	-5495
▁receive	-5496
▁implementing	-5497
▁Dazu	-5498
▁weak	-5499
bringen	-5500
▁Wochen	-5501
▁Germany	-5502
barkeit	-5503
▁combat	-5504
▁remains	-5505
▁Vereinbarung	-5506
▁zug	-5507
action	-5508
▁gern	-5509
▁Ereign	-5510
▁regime	-5511
▁verfügen	-5512
▁definition	-5513
▁22	-5514
▁lot	-5515
▁wr	-5516
▁div	-5517
▁PPE	-5518
▁wid	-5519
ortion	-5520
▁geworden	-5521
itude	-5522
▁prob	-5523
▁advant	-5524
▁commitments	-5525
ausschusses	-5526
▁institutional	-5527
▁erwähnt	-5528
odell	-5529
making	-5530
ibility	-5531
▁Achtung	-5532
▁met	-5533
▁Katastrop	-5534
▁directives	-5535
▁partnership	-5536
▁reduction	-5537
aktor	-5538
imbab	-5539
▁wrong	-5540
▁Krank	-5541
▁forces	-5542
mand	-5543
▁British	-5544
olid	-5545
ourn	-5546
itation	-5547
▁spir	-5548
▁zeigen	-5549
).	-5550
▁früher	-5551
▁speaking	-5552
unternehmen	-5553
▁personal	-5554
▁entsprechend	-5555
schiede	-5556
▁extens	-5557
▁directly	-5558
▁material	-5559
FR	-5560
▁Po	-5561
▁Nah	-5562
▁Preis	-5563
▁police	-5564
▁arran	-5565
▁umgesetzt	-5566
▁verpflichtet	-5567
rahmen	-5568
rieben	-5569
▁acceptable	-5570
▁vorsch	-5571
▁bar	-5572
geber	-5573
ira	-5574
rittens	-5575
▁tw	-5576
5-03	-5577
zeigt	-5578
▁Projekt	-5579
▁Mediterranean	-5580
▁sk	-5581
▁deta	-5582
▁concept	-5583
▁seriously	-5584
etimes	-5585
LAF	-5586
unt	-5587
▁Gu	-5588
▁Maße	-5589
▁somit	-5590
▁Entwurf	-5591
▁argument	-5592
chtet	-5593
▁Aspekt	-5594
ämpfen	-5595
▁Allerdings	-5596
199	-5597
▁party	-5598
▁gegenwärtigen	-5599
▁Dan	-5600
ureau	-5601
▁rate	-5602
▁Development	-5603
of	-5604
yond	-5605
▁created	-5606
▁flo	-5607
▁Kyoto	-5608
▁entgegen	-5609
▁investig	-5610
▁organisation	-5611
▁Ze	-5612
zeugt	-5613
▁anerk	-5614
▁Reformen	-5615
fect	-5616
uche	-5617
langt	-5618
astung	-5619
▁jeweil	-5620
▁Italian	-5621
▁Landwir	-5622
▁eingere	-5623
icherung	-5624
▁Ausführ	-5625
▁Veränder	-5626
▁prevention	-5627
▁Forderungen	-5628
sprün	-5629
▁sport	-5630
▁technology	-5631
▁allgemeinen	-5632
▁konnten	-5633
▁condu	-5634
▁einiger	-5635
▁package	-5636
▁setting	-5637
▁23	-5638
▁Lat	-5639
▁Paper	-5640
▁neuer	-5641
ression	-5642
laufen	-5643
▁speech	-5644
▁diskutieren	-5645
ffiz	-5646
gesetz	-5647
▁warum	-5648
odies	-5649
▁Sh	-5650
▁Unser	-5651
▁Middle	-5652
▁decide	-5653
▁ausgewogen	-5654
▁effectively	-5655
uded	-5656
▁living	-5657
▁substantial	-5658
sektor	-5659
▁pointed	-5660
▁sitting	-5661
▁infrastr	-5662
▁bilateral	-5663
▁committed	-5664
▁später	-5665
ological	-5666
▁Beschäftigungs	-5667
rehens	-5668
▁sound	-5669
grundlage	-5670
▁zufrieden	-5671
▁Beteiligung	-5672
▁Kar	-5673
ieben	-5674
▁declar	-5675
entscheid	-5676
▁100	-5677
▁Schr	-5678
▁positiv	-5679
▁darstellen	-5680
▁Pak	-5681
▁Inde	-5682
▁Charta	-5683
▁Überwach	-5684
äfen	-5685
▁ihres	-5686
▁active	-5687
ounts	-5688
▁Prü	-5689
schreit	-5690
▁highly	-5691
besch	-5692
letzt	-5693
▁fehl	-5694
▁home	-5695
▁firstly	-5696
▁Defin	-5697
▁willing	-5698
▁zunehmen	-5699
▁message	-5700
▁24	-5701
▁incorpor	-5702
▁deep	-5703
▁mand	-5704
▁Agenda	-5705
▁erklärt	-5706
▁sicherlich	-5707
▁Europol	-5708
▁bessere	-5709
▁unz	-5710
▁gewiss	-5711
▁distrib	-5712
▁Vergangen	-5713
▁erforderlichen	-5714
▁beyond	-5715
▁verehrte	-5716
▁infrastruct	-5717
▁El	-5718
auen	-5719
▁Meth	-5720
▁Saddam	-5721
▁traffic	-5722
where	-5723
▁MEPs	-5724
▁contract	-5725
▁age	-5726
▁alone	-5727
▁useful	-5728
▁Ministers	-5729
▁recognise	-5730
▁Plenum	-5731
▁gering	-5732
gesundheit	-5733
▁Rechnungs	-5734
▁acqu	-5735
▁eher	-5736
mission	-5737
▁Bereiche	-5738
ören	-5739
▁OLAF	-5740
▁genet	-5741
reichend	-5742
▁similar	-5743
▁vernünft	-5744
▁relationship	-5745
▁Zw	-5746
▁2006	-5747
▁Ress	-5748
▁fear	-5749
▁stimme	-5750
▁durchgeführt	-5751
üg	-5752
▁gekommen	-5753
▁requires	-5754
▁improving	-5755
to	-5756
▁ursprün	-5757
▁Macht	-5758
▁thous	-5759
▁businesses	-5760
▁commer	-5761
▁applies	-5762
▁yesterday	-5763
▁contribute	-5764
▁Grenz	-5765
▁zahlreiche	-5766
▁exact	-5767
▁spezif	-5768
▁limited	-5769
▁establishing	-5770
▁Osten	-5771
▁activity	-5772
▁notwendigen	-5773
▁Spain	-5774
▁italien	-5775
▁beru	-5776
▁ganze	-5777
▁gratul	-5778
▁consist	-5779
bru	-5780
zehn	-5781
iten	-5782
rägt	-5783
▁dank	-5784
▁Währung	-5785
äher	-5786
▁verm	-5787
▁ways	-5788
reffend	-5789
▁unfortunately	-5790
▁alloc	-5791
▁bodies	-5792
▁bur	-5793
▁June	-5794
▁known	-5795
▁Versuch	-5796
▁provides	-5797
bend	-5798
▁ensuring	-5799
raten	-5800
▁Febru	-5801
▁benöt	-5802
▁outcome	-5803
▁Rules	-5804
▁rapid	-5805
▁exclus	-5806
zeichnung	-5807
▁eingesetzt	-5808
itial	-5809
sper	-5810
imbabwe	-5811
▁Aufnahme	-5812
▁befinden	-5813
▁providing	-5814
▁shown	-5815
▁welcom	-5816
▁weapons	-5817
ash	-5818
lam	-5819
▁Krise	-5820
▁Übrigen	-5821
▁Einhaltung	-5822
▁alternative	-5823
▁Vergangenheit	-5824
▁Gebieten	-5825
▁paragraph	-5826
luß	-5827
▁abzu	-5828
▁compens	-5829
▁Democrats	-5830
▁Question	-5831
▁möglichst	-5832
iveau	-5833
▁Beruf	-5834
▁beein	-5835
▁discussing	-5836
▁Führ	-5837
▁jede	-5838
▁paid	-5839
▁worth	-5840
▁Verhält	-5841
▁konkreten	-5842
▁descr	-5843
▁Bewertung	-5844
▁kommenden	-5845
▁Zweifel	-5846
▁discrimination	-5847
atch	-5848
bung	-5849
▁produce	-5850
▁delegation	-5851
▁Grie	-5852
▁bank	-5853
▁dipl	-5854
▁Nieder	-5855
▁betonen	-5856
▁produced	-5857
▁unmittel	-5858
ina	-5859
▁Nahr	-5860
istence	-5861
▁Public	-5862
▁closely	-5863
▁außerord	-5864
ginn	-5865
▁max	-5866
European	-5867
▁Nutzung	-5868
▁reflect	-5869
▁nationale	-5870
▁industrial	-5871
▁gek	-5872
ernen	-5873
▁enterpr	-5874
▁profess	-5875
ender	-5876
▁grenz	-5877
▁gefunden	-5878
reece	-5879
▁firm	-5880
▁whom	-5881
achtet	-5882
nungen	-5883
▁Irish	-5884
▁expendit	-5885
▁27	-5886
▁reply	-5887
▁gesetzt	-5888
▁Wahlen	-5889
▁ändern	-5890
▁entsprechende	-5891
sec	-5892
▁auszu	-5893
▁Greece	-5894
▁caused	-5895
▁fragen	-5896
▁gehören	-5897
▁langfrist	-5898
▁developments	-5899
hän	-5900
lägt	-5901
▁unemp	-5902
▁Gesprä	-5903
zeichnen	-5904
▁geschehen	-5905
▁deg	-5906
▁Einw	-5907
▁independent	-5908
▁Gesetzgebung	-5909
aign	-5910
▁leave	-5911
▁Health	-5912
ones	-5913
▁laid	-5914
▁targe	-5915
▁expenditure	-5916
anner	-5917
▁Klar	-5918
▁wären	-5919
▁Juni	-5920
▁Wohl	-5921
jected	-5922
▁letzte	-5923
▁tack	-5924
▁parliaments	-5925
▁ä	-5926
osla	-5927
▁code	-5928
▁urge	-5929
ugosla	-5930
lines	-5931
richtungen	-5932
beziehung	-5933
▁adoption	-5934
▁Wiederauf	-5935
▁beglückwünschen	-5936
icles	-5937
▁Anges	-5938
▁Versch	-5939
▁univers	-5940
▁Eisenbahn	-5941
▁außerdem	-5942
▁Forschungs	-5943
▁Verpflichtung	-5944
atik	-5945
▁earlier	-5946
▁Russland	-5947
▁function	-5948
▁vorhanden	-5949
used	-5950
▁Eind	-5951
▁Agent	-5952
▁besten	-5953
▁inspect	-5954
▁gre	-5955
▁Mitteln	-5956
▁campaign	-5957
▁undertak	-5958
Ver	-5959
▁häufig	-5960
▁dagegen	-5961
kung	-5962
▁Flexib	-5963
▁Gesamt	-5964
▁GM	-5965
ützt	-5966
▁Pflicht	-5967
▁Swedish	-5968
▁übernehmen	-5969
▁natural	-5970
wesen	-5971
urance	-5972
ought	-5973
oreign	-5974
▁early	-5975
▁Deutschland	-5976
▁derzeitigen	-5977
▁künftig	-5978
▁analysis	-5979
▁positions	-5980
▁Einrichtung	-5981
▁temp	-5982
▁language	-5983
▁lives	-5984
▁Ausführungen	-5985
▁einzus	-5986
▁initial	-5987
▁größere	-5988
▁effizient	-5989
▁lösen	-5990
▁probably	-5991
▁consultation	-5992
▁sage	-5993
▁kontro	-5994
▁emphasise	-5995
▁aufmerksam	-5996
▁Central	-5997
▁bald	-5998
▁Werte	-5999
▁disch	-6000
▁medic	-6001
▁Foreign	-6002
▁Griechen	-6003
▁Gene	-6004
▁schem	-6005
▁study	-6006
▁endgült	-6007
▁schwierig	-6008
▁arm	-6009
▁later	-6010
▁culture	-6011
▁Although	-6012
▁happened	-6013
▁Third	-6014
▁goods	-6015
▁rural	-6016
▁Technolog	-6017
▁Greek	-6018
▁Stärkung	-6019
▁ehr	-6020
▁zul	-6021
▁contrary	-6022
▁organised	-6023
▁Gl	-6024
▁ade	-6025
▁divers	-6026
▁Begriff	-6027
▁Bot	-6028
esehen	-6029
ierende	-6030
▁Economic	-6031
▁sometimes	-6032
lad	-6033
▁Kü	-6034
▁pursu	-6035
stimmung	-6036
▁increasingly	-6037
change	-6038
▁Ausgaben	-6039
▁Produkte	-6040
▁erschein	-6041
chnung	-6042
zub	-6043
▁ce	-6044
▁Tab	-6045
entwick	-6046
▁schwed	-6047
▁nochmals	-6048
pret	-6049
▁calls	-6050
▁challenge	-6051
frastruktur	-6052
ancen	-6053
▁Drogen	-6054
▁Harmon	-6055
▁Stellen	-6056
▁consens	-6057
▁negative	-6058
▁solutions	-6059
▁unternehmen	-6060
▁Ang	-6061
▁prices	-6062
▁Leitlinien	-6063
▁successful	-6064
inter	-6065
achtung	-6066
ifellos	-6067
▁erweit	-6068
▁terrorist	-6069
.00	-6070
onom	-6071
vere	-6072
▁dev	-6073
icking	-6074
▁verme	-6075
body	-6076
annte	-6077
▁reag	-6078
▁Beginn	-6079
▁remark	-6080
ex	-6081
▁herr	-6082
▁Konvents	-6083
rec	-6084
▁remember	-6085
▁Diskrimin	-6086
▁grenzüber	-6087
ox	-6088
itors	-6089
▁supply	-6090
▁richtige	-6091
▁Christ	-6092
▁Arbeitsplätze	-6093
▁tar	-6094
▁Vorschlägen	-6095
iedr	-6096
▁gives	-6097
▁Milliar	-6098
▁colleague	-6099
äne	-6100
▁join	-6101
▁thought	-6102
ior	-6103
ielt	-6104
▁Mil	-6105
▁Global	-6106
▁influen	-6107
▁Leist	-6108
▁networks	-6109
▁unge	-6110
▁Folge	-6111
▁red	-6112
▁sea	-6113
▁zudem	-6114
▁Einbeziehung	-6115
otes	-6116
mäßig	-6117
▁gain	-6118
▁manner	-6119
losigkeit	-6120
▁perspect	-6121
▁dealt	-6122
▁Nahrungs	-6123
hm	-6124
cknow	-6125
▁rene	-6126
▁vorher	-6127
▁morning	-6128
▁Delegation	-6129
zwe	-6130
▁Proced	-6131
▁associ	-6132
präsident	-6133
▁erfüllen	-6134
▁neu	-6135
▁benefits	-6136
▁ausdrücklich	-6137
▁sent	-6138
▁Tagung	-6139
▁dangerous	-6140
▁acknow	-6141
▁border	-6142
▁disapp	-6143
▁künftigen	-6144
▁flexibility	-6145
▁möglicherweise	-6146
räft	-6147
▁Übergang	-6148
▁log	-6149
licht	-6150
▁Festlegung	-6151
▁Aktivitäten	-6152
The	-6153
▁offensichtlich	-6154
▁nah	-6155
▁hinzu	-6156
▁looking	-6157
▁grie	-6158
▁Hinter	-6159
▁sl	-6160
amente	-6161
▁disease	-6162
▁Zeitraum	-6163
statt	-6164
fallen	-6165
▁Worte	-6166
▁calling	-6167
▁Kritik	-6168
▁complex	-6169
opol	-6170
▁gesehen	-6171
▁elements	-6172
▁erfolgen	-6173
▁operation	-6174
uter	-6175
▁Alle	-6176
▁Bush	-6177
ifying	-6178
▁actual	-6179
▁counter	-6180
▁steps	-6181
▁Friedens	-6182
▁Geschichte	-6183
▁Never	-6184
▁bietet	-6185
freiheit	-6186
▁lik	-6187
▁element	-6188
▁überzeugt	-6189
▁öffentlich	-6190
In	-6191
▁198	-6192
▁dead	-6193
▁Gest	-6194
▁exper	-6195
▁helfen	-6196
▁consensus	-6197
▁Mittelmeer	-6198
zeugung	-6199
▁verfolgen	-6200
▁explo	-6201
▁Bereit	-6202
▁unternommen	-6203
tes	-6204
öder	-6205
stant	-6206
▁wants	-6207
ungsver	-6208
ool	-6209
▁Sc	-6210
▁Mai	-6211
▁New	-6212
▁Spe	-6213
wortet	-6214
▁nennen	-6215
▁Moreover	-6216
▁bill	-6217
▁Wunsch	-6218
▁gewähl	-6219
▁thinking	-6220
▁properly	-6221
▁Priorität	-6222
▁28	-6223
▁drawn	-6224
▁Medien	-6225
▁Sanktionen	-6226
▁fle	-6227
ilden	-6228
▁anders	-6229
▁sensitive	-6230
▁har	-6231
called	-6232
▁annual	-6233
▁Procedure	-6234
▁betroffenen	-6235
bor	-6236
spe	-6237
▁Ressourcen	-6238
▁Instrumente	-6239
▁stattfinden	-6240
mden	-6241
oses	-6242
umer	-6243
▁spirit	-6244
▁sanctions	-6245
rab	-6246
▁Mob	-6247
iency	-6248
orgnis	-6249
▁Weiter	-6250
▁klare	-6251
▁gegenseit	-6252
▁commercial	-6253
amb	-6254
▁einsetzen	-6255
▁Kandidaten	-6256
▁jähr	-6257
▁achieving	-6258
ape	-6259
uls	-6260
ausch	-6261
amentar	-6262
wal	-6263
▁history	-6264
▁addressed	-6265
▁veh	-6266
▁Anliegen	-6267
▁conclude	-6268
▁Empfehlung	-6269
▁fulf	-6270
▁name	-6271
▁higher	-6272
acter	-6273
▁listen	-6274
inced	-6275
▁typ	-6276
imately	-6277
▁Privat	-6278
▁griech	-6279
▁festgestellt	-6280
▁Pet	-6281
engen	-6282
▁keines	-6283
▁verste	-6284
▁entspricht	-6285
jähr	-6286
▁Indeed	-6287
▁Sprache	-6288
▁equality	-6289
vis	-6290
rated	-6291
▁safeguard	-6292
ilst	-6293
▁duty	-6294
▁hop	-6295
▁anti	-6296
organisationen	-6297
▁einschließlich	-6298
▁ausges	-6299
▁Republik	-6300
▁rapporteurs	-6301
zö	-6302
either	-6303
▁glauben	-6304
▁methods	-6305
▁Projekte	-6306
▁resolutions	-6307
urd	-6308
▁et	-6309
▁mitt	-6310
▁weeks	-6311
ighbour	-6312
▁intention	-6313
▁unterstütze	-6314
ino	-6315
▁31	-6316
▁Heute	-6317
▁block	-6318
ffizien	-6319
▁launch	-6320
▁becoming	-6321
▁promoting	-6322
ört	-6323
ikation	-6324
▁Solana	-6325
▁company	-6326
möglichkeit	-6327
▁intervention	-6328
▁konzentrieren	-6329
▁administration	-6330
itime	-6331
▁sechs	-6332
▁Österreich	-6333
val	-6334
▁Mio	-6335
▁anderem	-6336
▁Strukturfonds	-6337
▁60	-6338
▁UK	-6339
▁convinced	-6340
reck	-6341
ished	-6342
▁Since	-6343
annes	-6344
ournal	-6345
suchen	-6346
undert	-6347
▁Straßen	-6348
▁überein	-6349
▁Nevertheless	-6350
▁Rechtsgrundlage	-6351
▁amt	-6352
ience	-6353
▁Höhe	-6354
▁repla	-6355
▁traff	-6356
▁penalt	-6357
▁verfolgt	-6358
▁Ausbildung	-6359
▁Why	-6360
▁bad	-6361
ierter	-6362
▁submitted	-6363
▁vermeiden	-6364
▁finanzielle	-6365
schn	-6366
▁Gef	-6367
ekten	-6368
fahrt	-6369
legungen	-6370
räsent	-6371
igrants	-6372
▁handeln	-6373
▁diskutiert	-6374
▁introduction	-6375
▁0	-6376
ehm	-6377
▁Sach	-6378
▁optim	-6379
▁improved	-6380
2)	-6381
▁King	-6382
strukt	-6383
▁coher	-6384
1999	-6385
▁says	-6386
▁Vorschlags	-6387
uth	-6388
▁January	-6389
▁recognition	-6390
▁Haft	-6391
▁Huss	-6392
▁After	-6393
▁Zentral	-6394
▁Gegenteil	-6395
▁obviously	-6396
ktors	-6397
▁Stimme	-6398
struktur	-6399
▁Angesichts	-6400
äum	-6401
▁Rev	-6402
▁learn	-6403
▁Ist	-6404
▁Schengen	-6405
▁standard	-6406
▁substances	-6407
▁Lux	-6408
▁body	-6409
▁ignor	-6410
▁Fischler	-6411
vi	-6412
angs	-6413
▁Mont	-6414
▁Rent	-6415
▁Some	-6416
▁forget	-6417
COD	-6418
▁jene	-6419
aktion	-6420
schuld	-6421
▁Wider	-6422
behörde	-6423
▁wonder	-6424
▁introduced	-6425
tru	-6426
ired	-6427
▁Verbindung	-6428
wäss	-6429
gewicht	-6430
▁Report	-6431
▁Verständ	-6432
▁kontroll	-6433
räge	-6434
▁comply	-6435
▁garant	-6436
▁involving	-6437
▁multilateral	-6438
▁Sto	-6439
▁Chance	-6440
▁ausführ	-6441
▁evidence	-6442
▁Schritte	-6443
▁Übereinkommen	-6444
ille	-6445
▁bedarf	-6446
etheless	-6447
▁schützen	-6448
▁territor	-6449
▁Erklärungen	-6450
▁Bü	-6451
prüft	-6452
itious	-6453
▁neighbour	-6454
▁Definition	-6455
▁Zur	-6456
▁lay	-6457
▁fallen	-6458
▁balanced	-6459
▁Hussein	-6460
▁Erwä	-6461
▁Irland	-6462
iell	-6463
▁1997	-6464
▁bekräft	-6465
▁suc	-6466
bürger	-6467
▁succeed	-6468
▁refugees	-6469
▁character	-6470
▁Mindest	-6471
/2000)	-6472
▁introduce	-6473
entwurf	-6474
▁Politiken	-6475
öm	-6476
enze	-6477
leisch	-6478
▁Inhalt	-6479
▁besondere	-6480
▁discharge	-6481
▁Gleichzeitig	-6482
inent	-6483
▁parts	-6484
▁bringt	-6485
ffizienz	-6486
höhung	-6487
▁Legal	-6488
▁failure	-6489
▁Verträge	-6490
▁Zuständigkeit	-6491
werte	-6492
▁employe	-6493
▁differences	-6494
▁aufzu	-6495
▁produc	-6496
ventions	-6497
▁Empfehlungen	-6498
oph	-6499
▁leicht	-6500
▁konkret	-6501
▁mehrere	-6502
▁Aktionen	-6503
▁Lösungen	-6504
▁Vielfalt	-6505
zust	-6506
▁herz	-6507
▁genug	-6508
▁unable	-6509
dra	-6510
▁Mo	-6511
▁Che	-6512
▁Chancen	-6513
▁enormous	-6514
▁Beschlüsse	-6515
gn	-6516
wart	-6517
▁laws	-6518
stoffe	-6519
▁quant	-6520
▁vielmehr	-6521
▁unterst	-6522
möglich	-6523
▁apprec	-6524
▁asking	-6525
▁degree	-6526
▁ganzen	-6527
▁erfüllt	-6528
▁disaster	-6529
ünde	-6530
stimm	-6531
▁test	-6532
▁Garant	-6533
▁Willen	-6534
▁explan	-6535
scheinlich	-6536
▁Engagement	-6537
feld	-6538
▁Pact	-6539
▁empf	-6540
▁geäuß	-6541
▁raise	-6542
▁former	-6543
▁erk	-6544
hören	-6545
▁Umst	-6546
▁Todes	-6547
▁Lastly	-6548
▁Schwer	-6549
▁bieten	-6550
▁dram	-6551
▁Liste	-6552
▁shows	-6553
▁strict	-6554
▁beginnen	-6555
▁hervorge	-6556
▁highlight	-6557
iction	-6558
▁wollte	-6559
▁erzielen	-6560
▁Turk	-6561
uerung	-6562
▁appeal	-6563
▁ergriffen	-6564
▁Berücksicht	-6565
gruppen	-6566
▁mainly	-6567
▁entirely	-6568
▁wünschen	-6569
wahl	-6570
▁Joh	-6571
▁verurs	-6572
mittag	-6573
▁choice	-6574
▁plen	-6575
▁Italy	-6576
▁Trade	-6577
▁Warum	-6578
▁exactly	-6579
ized	-6580
▁Italien	-6581
oul	-6582
5-04	-6583
▁media	-6584
▁Januar	-6585
▁Spanien	-6586
▁UNO	-6587
▁grant	-6588
▁nachhaltige	-6589
▁ähn	-6590
▁eigene	-6591
▁Industr	-6592
▁sämtliche	-6593
▁abgeschlossen	-6594
▁exchange	-6595
▁Harmonisierung	-6596
aufen	-6597
uelle	-6598
▁demonst	-6599
▁gestern	-6600
▁South	-6601
▁simple	-6602
leistung	-6603
▁Verhalten	-6604
sprogram	-6605
▁Problemen	-6606
▁Erfahrungen	-6607
weist	-6608
kret	-6609
▁ethn	-6610
uctural	-6611
▁cooper	-6612
▁repeat	-6613
halte	-6614
▁niedr	-6615
▁informed	-6616
arl	-6617
len	-6618
▁kaum	-6619
▁March	-6620
▁debates	-6621
▁pollution	-6622
▁Altern	-6623
▁Realität	-6624
▁Dimension	-6625
▁combating	-6626
▁competitive	-6627
▁situ	-6628
▁adopting	-6629
▁establishment	-6630
▁Nahen	-6631
ungsverfahren	-6632
▁gewährleistet	-6633
▁Tabak	-6634
▁beige	-6635
▁Grundsätze	-6636
▁recognised	-6637
▁supporting	-6638
afft	-6639
teen	-6640
▁See	-6641
liegt	-6642
▁plenary	-6643
▁pal	-6644
▁prä	-6645
▁größten	-6646
▁Funktion	-6647
▁konstrukt	-6648
temp	-6649
▁tät	-6650
▁White	-6651
▁school	-6652
punkte	-6653
▁fraud	-6654
▁einver	-6655
▁totally	-6656
▁constant	-6657
▁comprehens	-6658
▁opposition	-6659
▁politischer	-6660
▁1,	-6661
lexible	-6662
▁Hauses	-6663
▁depend	-6664
▁Johannes	-6665
sprogramm	-6666
▁sinnvoll	-6667
▁andererseits	-6668
▁hour	-6669
▁hohen	-6670
laubwürd	-6671
▁regionalen	-6672
▁verbessert	-6673
▁Fundamental	-6674
▁‘	-6675
ric	-6676
acco	-6677
▁Structural	-6678
gerung	-6679
▁Constitution	-6680
tritt	-6681
HO	-6682
▁jur	-6683
▁stär	-6684
▁Hohen	-6685
uba	-6686
▁Green	-6687
▁dynam	-6688
▁befassen	-6689
▁contains	-6690
iders	-6691
konom	-6692
▁Sign	-6693
▁Funds	-6694
▁withdra	-6695
▁gelungen	-6696
▁Verbot	-6697
▁abgele	-6698
▁spanischen	-6699
▁Agrarpolitik	-6700
▁send	-6701
▁technischen	-6702
▁Ann	-6703
▁coll	-6704
unsten	-6705
▁Today	-6706
▁influence	-6707
▁zuständigen	-6708
▁check	-6709
▁wesentlichen	-6710
▁Tour	-6711
▁worked	-6712
jekt	-6713
kosten	-6714
▁ausreichend	-6715
akter	-6716
▁rech	-6717
ederal	-6718
▁Kingdom	-6719
▁vorlegen	-6720
▁geschieht	-6721
▁Wege	-6722
gencies	-6723
▁ult	-6724
▁Subsid	-6725
▁Trans	-6726
▁direkt	-6727
▁reducing	-6728
hebung	-6729
pected	-6730
▁concentr	-6731
▁verschiedene	-6732
respon	-6733
▁keinerlei	-6734
▁parlamentar	-6735
▁arrange	-6736
▁kompliz	-6737
▁emissions	-6738
▁Vermittlungs	-6739
▁Blick	-6740
▁nunmehr	-6741
▁Erhöhung	-6742
▁beteiligt	-6743
DA	-6744
▁Cor	-6745
front	-6746
itzen	-6747
▁übern	-6748
▁Worten	-6749
▁statements	-6750
heim	-6751
▁bein	-6752
▁opening	-6753
▁speakers	-6754
▁behandeln	-6755
okraten	-6756
▁gleiche	-6757
▁Milliarden	-6758
oin	-6759
ranted	-6760
▁lines	-6761
▁simpl	-6762
gestimmt	-6763
grenzung	-6764
▁Bemerkungen	-6765
▁ersch	-6766
AT	-6767
iarity	-6768
▁defend	-6769
▁Nachbar	-6770
▁Vorbereitung	-6771
licherweise	-6772
▁enterprises	-6773
▁Unfortunately	-6774
adt	-6775
▁Ins	-6776
erten	-6777
pping	-6778
▁Leider	-6779
▁Gebiete	-6780
ense	-6781
ufact	-6782
▁Entl	-6783
▁März	-6784
▁Rechnung	-6785
▁building	-6786
▁Eindruck	-6787
▁prospect	-6788
AL	-6789
▁unbe	-6790
▁merely	-6791
▁betreffend	-6792
▁conference	-6793
aß	-6794
fiz	-6795
amber	-6796
▁fä	-6797
eres	-6798
▁Nur	-6799
▁mittel	-6800
▁Ausschuß	-6801
▁Partnerschaft	-6802
sprü	-6803
▁Sinn	-6804
coming	-6805
▁Drittens	-6806
▁Mitarbeit	-6807
▁akzeptiert	-6808
ächt	-6809
▁Bedenken	-6810
▁judicial	-6811
▁hervorragen	-6812
▁conciliation	-6813
Gen	-6814
▁Dennoch	-6815
▁Kollegin	-6816
richtlinie	-6817
▁Bemerkung	-6818
nel	-6819
ktron	-6820
▁occup	-6821
▁excess	-6822
ingeschrän	-6823
rey	-6824
▁sal	-6825
▁unf	-6826
spakt	-6827
▁Analy	-6828
auftrag	-6829
▁wishes	-6830
▁exercise	-6831
-200	-6832
▁Even	-6833
werten	-6834
▁happy	-6835
▁told	-6836
ari	-6837
urally	-6838
▁reserv	-6839
▁Einfluss	-6840
▁hervorheben	-6841
▁dienen	-6842
ungsbereich	-6843
▁trafficking	-6844
▁Johannesburg	-6845
orary	-6846
▁Gründe	-6847
▁Sonder	-6848
▁immediately	-6849
▁Überwachung	-6850
ival	-6851
▁Austria	-6852
▁Volksgesundheit	-6853
▁80	-6854
▁surpr	-6855
▁Polize	-6856
▁Schwed	-6857
▁Konzept	-6858
▁uneingeschrän	-6859
▁Süd	-6860
istisch	-6861
▁closer	-6862
▁politisch	-6863
▁höher	-6864
▁Maßnahme	-6865
▁usw	-6866
▁Bestand	-6867
▁subsidies	-6868
ählen	-6869
▁Rand	-6870
▁class	-6871
▁structure	-6872
zed	-6873
▁Berat	-6874
▁Angriff	-6875
▁außerhalb	-6876
ifall	-6877
▁formal	-6878
▁fulfil	-6879
▁passen	-6880
▁erklären	-6881
▁Wissenschaft	-6882
▁unemployment	-6883
anten	-6884
▁rise	-6885
▁appears	-6886
▁meetings	-6887
▁Fortschritt	-6888
Das	-6889
▁Weiß	-6890
▁perfect	-6891
▁resolve	-6892
▁seeking	-6893
▁demokratische	-6894
ton	-6895
▁tob	-6896
▁chance	-6897
▁betrachtet	-6898
▁zweifellos	-6899
▁recommendations	-6900
inary	-6901
verse	-6902
▁behaup	-6903
▁prefer	-6904
▁grundsätz	-6905
künft	-6906
▁ausgesprochen	-6907
oples	-6908
brauch	-6909
▁entwickelt	-6910
▁Infrastruktur	-6911
COM	-6912
ump	-6913
▁Fremden	-6914
sequently	-6915
▁forth	-6916
▁ideas	-6917
General	-6918
▁seitens	-6919
▁tobacco	-6920
ypr	-6921
rying	-6922
border	-6923
atlant	-6924
▁putting	-6925
uk	-6926
/2002)	-6927
erungs	-6928
▁Fälle	-6929
▁ahead	-6930
prinzip	-6931
▁Ferner	-6932
▁manufact	-6933
▁criticism	-6934
50	-6935
NS	-6936
bry	-6937
▁don	-6938
istics	-6939
▁Schwe	-6940
▁added	-6941
▁managed	-6942
▁record	-6943
▁Subsidiar	-6944
üter	-6945
▁rig	-6946
otion	-6947
▁Dafür	-6948
▁announ	-6949
▁Faktor	-6950
▁uni	-6951
▁Anspruch	-6952
▁climate	-6953
▁critical	-6954
▁Freiheiten	-6955
▁außerordentlich	-6956
▁pill	-6957
▁Trotz	-6958
▁Europäer	-6959
▁Drittländern	-6960
udem	-6961
▁Doha	-6962
gruppe	-6963
▁Luxem	-6964
▁Wicht	-6965
▁heart	-6966
lemente	-6967
läut	-6968
▁Zudem	-6969
▁board	-6970
▁gezeigt	-6971
zne	-6972
▁zukünft	-6973
▁attitude	-6974
▁interpret	-6975
va	-6976
orgt	-6977
▁jetz	-6978
▁aimed	-6979
▁perman	-6980
▁rejected	-6981
▁subsidiarity	-6982
▁Vorgehen	-6983
▁palästinens	-6984
▁Acc	-6985
ature	-6986
assend	-6987
ährungs	-6988
▁opposed	-6989
▁practices	-6990
▁impossible	-6991
apt	-6992
iste	-6993
▁Punkten	-6994
IP	-6995
eben	-6996
fält	-6997
▁Rel	-6998
▁Thirdly	-6999
▁ambitious	-7000
AR	-7001
estens	-7002
ichern	-7003
▁Besorgnis	-7004
▁aussprechen	-7005
▁einverstanden	-7006
orre	-7007
▁Stock	-7008
▁affairs	-7009
▁facilit	-7010
▁Klim	-7011
▁neben	-7012
▁veran	-7013
▁Mand	-7014
schlag	-7015
▁angeht	-7016
ya	-7017
itel	-7018
▁chem	-7019
▁Umfang	-7020
▁Kontroll	-7021
▁dimension	-7022
▁strategic	-7023
▁harmonisation	-7024
▁proposing	-7025
trol	-7026
wiesen	-7027
▁Einige	-7028
▁professional	-7029
▁Krä	-7030
stelle	-7031
▁weshalb	-7032
laus	-7033
▁anderes	-7034
▁Treaties	-7035
mar	-7036
▁Bi	-7037
▁ga	-7038
fühl	-7039
hafte	-7040
zneim	-7041
▁understanding	-7042
▁Pap	-7043
▁claim	-7044
ifizierung	-7045
▁constitution	-7046
▁finde	-7047
▁freien	-7048
▁figures	-7049
▁Landwirte	-7050
ai	-7051
try	-7052
klang	-7053
▁auff	-7054
the	-7055
▁26	-7056
▁kürz	-7057
▁burden	-7058
▁Dienste	-7059
▁guarantees	-7060
orea	-7061
reitet	-7062
▁peoples	-7063
▁jüngsten	-7064
)).	-7065
▁fern	-7066
▁aktiv	-7067
▁anwes	-7068
▁ought	-7069
▁elected	-7070
▁granted	-7071
▁greatest	-7072
rest	-7073
▁situations	-7074
zi	-7075
▁pub	-7076
kolog	-7077
schäd	-7078
sized	-7079
▁gebe	-7080
▁reduced	-7081
▁Arbeitsmarkt	-7082
CP	-7083
▁enj	-7084
enste	-7085
▁chair	-7086
▁Risiko	-7087
▁flexible	-7088
▁positiven	-7089
ury	-7090
akte	-7091
▁ged	-7092
▁moral	-7093
forderung	-7094
▁gelangen	-7095
▁Vergleich	-7096
atur	-7097
samm	-7098
▁persönlich	-7099
▁Akte	-7100
itable	-7101
ündung	-7102
▁falls	-7103
ündet	-7104
▁gratulieren	-7105
▁constitutional	-7106
▁Voraussetzungen	-7107
scht	-7108
▁won	-7109
▁beide	-7110
absicht	-7111
reichung	-7112
▁contact	-7113
ding	-7114
▁Gruppe	-7115
▁constructive	-7116
▁Subsidiarität	-7117
ente	-7118
gänz	-7119
lause	-7120
ünden	-7121
▁Gemein	-7122
▁Hoffnung	-7123
qual	-7124
▁Dann	-7125
▁near	-7126
▁gesetz	-7127
▁Oct	-7128
cement	-7129
▁Ihren	-7130
▁Verletz	-7131
strategie	-7132
▁challenges	-7133
osen	-7134
indern	-7135
inding	-7136
▁Eigen	-7137
▁legen	-7138
▁vorge	-7139
▁Aufbau	-7140
▁agencies	-7141
handlungen	-7142
zneimittel	-7143
▁verwendet	-7144
▁arms	-7145
▁erör	-7146
▁feed	-7147
▁Erika	-7148
▁covered	-7149
▁fordere	-7150
losen	-7151
▁aims	-7152
PT	-7153
asse	-7154
▁Kapital	-7155
▁fordert	-7156
▁abgelehnt	-7157
DS	-7158
ürf	-7159
acio	-7160
▁series	-7161
uber	-7162
▁Tamp	-7163
▁foot	-7164
▁compla	-7165
▁niemand	-7166
▁Ev	-7167
▁easy	-7168
▁round	-7169
▁recommendation	-7170
yr	-7171
▁Aud	-7172
▁represents	-7173
VO	-7174
▁2005	-7175
▁sagt	-7176
ventionen	-7177
▁transfer	-7178
▁sonst	-7179
▁begrenz	-7180
▁gewisse	-7181
uli	-7182
äden	-7183
▁destro	-7184
▁Europeans	-7185
▁nachhaltigen	-7186
KOM	-7187
▁Di	-7188
ruh	-7189
setzt	-7190
▁komme	-7191
▁prior	-7192
▁trust	-7193
prüfung	-7194
▁Sweden	-7195
▁starting	-7196
▁weiterer	-7197
▁thousands	-7198
▁zahlreichen	-7199
onn	-7200
igne	-7201
▁Palacio	-7202
▁targets	-7203
▁evaluation	-7204
▁transition	-7205
▁arrangements	-7206
ars	-7207
reib	-7208
rep	-7209
▁tour	-7210
▁Veränderungen	-7211
▁Diskussionen	-7212
▁Dr	-7213
▁harm	-7214
etschen	-7215
▁mandate	-7216
bild	-7217
embly	-7218
▁excl	-7219
▁sofort	-7220
▁Einklang	-7221
▁Programms	-7222
▁employees	-7223
▁vorzulegen	-7224
itory	-7225
▁auss	-7226
▁drugs	-7227
▁Tampere	-7228
▁Tsch	-7229
esearch	-7230
▁Eing	-7231
▁came	-7232
▁bilden	-7233
▁Verfahrens	-7234
▁betrachten	-7235
▁sicherzustellen	-7236
▁Behin	-7237
▁North	-7238
schiedet	-7239
▁involve	-7240
▁supports	-7241
▁Flexibilität	-7242
▁dre	-7243
iffer	-7244
▁Zweck	-7245
▁Ebenso	-7246
tendlich	-7247
▁controls	-7248
▁u	-7249
rupt	-7250
▁jem	-7251
uropa	-7252
leiten	-7253
▁Anp	-7254
▁Berlin	-7255
▁Fehler	-7256
▁signed	-7257
▁Prüfung	-7258
▁dennoch	-7259
▁integrated	-7260
▁verabschiedet	-7261
▁90	-7262
▁mutual	-7263
▁Research	-7264
▁structures	-7265
▁Bew	-7266
▁Beob	-7267
▁beträcht	-7268
▁sole	-7269
▁stre	-7270
▁Moment	-7271
stag	-7272
▁getting	-7273
kontrolle	-7274
uble	-7275
▁ones	-7276
▁einger	-7277
▁erwähn	-7278
▁continuing	-7279
möglichkeiten	-7280
ypern	-7281
▁quot	-7282
▁rele	-7283
ördert	-7284
▁timet	-7285
▁Lauf	-7286
▁Voll	-7287
▁sehe	-7288
standing	-7289
▁naturally	-7290
▁[	-7291
▁volle	-7292
▁absolut	-7293
▁strongly	-7294
▁erfolgreich	-7295
▁Mc	-7296
gemäß	-7297
▁Hoch	-7298
▁Palästinens	-7299
▁Diskriminierung	-7300
▁meant	-7301
▁Konsequ	-7302
▁Sk	-7303
attle	-7304
▁attacks	-7305
▁efficiency	-7306
▁aufgefordert	-7307
künd	-7308
linge	-7309
▁advoc	-7310
▁rasch	-7311
▁erhöhen	-7312
itiveness	-7313
▁Heim	-7314
▁vorange	-7315
cyc	-7316
▁hohe	-7317
▁enfor	-7318
▁Turkish	-7319
▁diversity	-7320
▁Verfassungs	-7321
öp	-7322
/00	-7323
▁Hause	-7324
▁defic	-7325
▁trägt	-7326
▁grounds	-7327
▁advantage	-7328
▁obligations	-7329
▁shar	-7330
▁Jetzt	-7331
▁Tagen	-7332
▁publish	-7333
▁Botschaft	-7334
▁zusätzliche	-7335
▁infrastructure	-7336
▁Juli	-7337
atever	-7338
atters	-7339
schefs	-7340
▁betont	-7341
▁umwelt	-7342
▁amongst	-7343
▁detailed	-7344
▁original	-7345
▁Stability	-7346
▁umfassende	-7347
▁Bürgerinnen	-7348
▁vollständig	-7349
uese	-7350
▁travel	-7351
gef	-7352
▁Okt	-7353
▁stärken	-7354
▁immigrants	-7355
▁Prime	-7356
▁letzt	-7357
▁Resolution	-7358
▁votes	-7359
MU	-7360
angt	-7361
bruch	-7362
▁lost	-7363
▁coast	-7364
institution	-7365
▁Überzeugung	-7366
ustom	-7367
ugnisse	-7368
▁Monate	-7369
▁bureau	-7370
▁office	-7371
▁October	-7372
▁verteid	-7373
▁Besonder	-7374
▁payments	-7375
▁presence	-7376
▁compensation	-7377
ateful	-7378
hab	-7379
üsse	-7380
fähig	-7381
richten	-7382
ommer	-7383
zielle	-7384
▁failed	-7385
▁cal	-7386
▁Tiere	-7387
▁Agricult	-7388
▁reasonable	-7389
af	-7390
orse	-7391
uchen	-7392
▁beiz	-7393
▁Parlamente	-7394
▁Portuguese	-7395
▁vir	-7396
yprus	-7397
▁factor	-7398
▁Consumer	-7399
▁territory	-7400
▁französischen	-7401
▁ey	-7402
▁July	-7403
▁stra	-7404
▁erkennen	-7405
▁ländlichen	-7406
▁Griechenland	-7407
▁Kre	-7408
▁unc	-7409
▁sw	-7410
▁bringing	-7411
▁Anforderungen	-7412
hre	-7413
aßen	-7414
▁moder	-7415
▁Cyprus	-7416
▁Oktober	-7417
▁tool	-7418
ungsbe	-7419
▁Balkan	-7420
▁Tun	-7421
▁financing	-7422
▁Voraussetzung	-7423
imal	-7424
▁mist	-7425
▁front	-7426
▁Nutzen	-7427
▁äußern	-7428
▁Many	-7429
ärkten	-7430
▁Abend	-7431
berecht	-7432
▁languages	-7433
▁comprehensive	-7434
IN	-7435
heits	-7436
▁producers	-7437
▁ec	-7438
▁Kontrollen	-7439
▁teile	-7440
▁jeweiligen	-7441
▁Aktionsplan	-7442
igu	-7443
äss	-7444
allel	-7445
atisch	-7446
▁bemüht	-7447
▁reiter	-7448
▁Gerichtshof	-7449
ES	-7450
KP	-7451
uff	-7452
▁500	-7453
▁GVO	-7454
▁Ord	-7455
▁frag	-7456
▁hält	-7457
▁müsste	-7458
▁explain	-7459
▁grateful	-7460
▁einbezogen	-7461
amer	-7462
leun	-7463
endum	-7464
rochen	-7465
asbourg	-7466
▁nationaler	-7467
▁Überlegungen	-7468
▁amerikanischen	-7469
▁representative	-7470
▁inten	-7471
▁destru	-7472
programm	-7473
bekämpfung	-7474
▁competence	-7475
▁2,	-7476
läuf	-7477
▁Beam	-7478
ittees	-7479
rokrat	-7480
▁angeb	-7481
chanismen	-7482
▁ausschließlich	-7483
asm	-7484
▁Einwander	-7485
▁interesting	-7486
▁Konsult	-7487
▁carefully	-7488
▁entstehen	-7489
▁aufzunehmen	-7490
▁entschlossen	-7491
▁NG	-7492
▁fu	-7493
hemal	-7494
▁diesel	-7495
abilität	-7496
▁Systems	-7497
▁designed	-7498
ürk	-7499
▁Urs	-7500
▁Mensch	-7501
chanisms	-7502
▁zugunsten	-7503
▁Verständnis	-7504
▁29	-7505
nahm	-7506
▁warm	-7507
▁facing	-7508
ustausch	-7509
▁Risiken	-7510
▁conduct	-7511
ón	-7512
oke	-7513
hrten	-7514
endence	-7515
▁respekt	-7516
▁involvement	-7517
▁grundlegenden	-7518
▁nachdrücklich	-7519
▁70	-7520
cision	-7521
▁Ziels	-7522
▁works	-7523
▁Krisen	-7524
▁Konsens	-7525
▁proposes	-7526
▁unabhängig	-7527
uses	-7528
▁Redner	-7529
▁elektron	-7530
▁Vereinbarungen	-7531
▁competitiveness	-7532
-,	-7533
▁indire	-7534
▁limits	-7535
▁speziell	-7536
uropäischen	-7537
esten	-7538
ology	-7539
▁wach	-7540
ording	-7541
vergen	-7542
tellten	-7543
▁Voraus	-7544
▁Chamber	-7545
▁nachdem	-7546
▁mechanisms	-7547
min	-7548
▁Budgets	-7549
▁courage	-7550
▁Strasbourg	-7551
▁declaration	-7552
▁entit	-7553
▁kleine	-7554
▁gestalten	-7555
▁britischen	-7556
▁Umweltfragen	-7557
▁contributions	-7558
▁Jed	-7559
▁Mir	-7560
asten	-7561
liance	-7562
▁einig	-7563
▁Stockhol	-7564
stellungen	-7565
▁vorbereit	-7566
ivity	-7567
▁Phase	-7568
▁floor	-7569
▁tasks	-7570
▁ökolog	-7571
▁related	-7572
iums	-7573
▁zut	-7574
▁braucht	-7575
▁adequate	-7576
▁größeren	-7577
▁err	-7578
ermaßen	-7579
▁Zypern	-7580
▁whilst	-7581
▁bedauer	-7582
▁pensions	-7583
▁".	-7584
älter	-7585
▁acts	-7586
▁genere	-7587
▁temporary	-7588
▁Übereinstimmung	-7589
Vert	-7590
länd	-7591
▁compar	-7592
▁wesentliche	-7593
tehen	-7594
▁1996	-7595
ktiken	-7596
▁enjoy	-7597
systeme	-7598
▁daraus	-7599
zul	-7600
▁Em	-7601
täus	-7602
▁range	-7603
▁Legisl	-7604
▁currency	-7605
▁followed	-7606
▁einerseits	-7607
▁miteinander	-7608
▁Ja	-7609
▁setzt	-7610
▁signal	-7611
▁voraus	-7612
▁solcher	-7613
▁herzlich	-7614
▁vorgesehenen	-7615
gesellschaften	-7616
▁Globalisierung	-7617
zent	-7618
▁dict	-7619
▁länger	-7620
▁bezieht	-7621
▁Minderheiten	-7622
▁Mus	-7623
▁mag	-7624
▁Renten	-7625
▁beings	-7626
▁insist	-7627
▁Gruppen	-7628
▁eingeführt	-7629
▁wahrscheinlich	-7630
15	-7631
▁arr	-7632
▁tro	-7633
werber	-7634
▁Milit	-7635
▁neither	-7636
▁happening	-7637
▁vorgeschlagene	-7638
eine	-7639
iable	-7640
▁Hels	-7641
▁Basis	-7642
▁treten	-7643
▁unmittelbar	-7644
▁appropriations	-7645
igital	-7646
▁Ladies	-7647
imin	-7648
itet	-7649
▁slow	-7650
issens	-7651
▁Patent	-7652
zwischen	-7653
▁Produktion	-7654
▁Vitor	-7655
▁Schiffe	-7656
▁internationaler	-7657
▁AKP	-7658
ildet	-7659
▁ausger	-7660
▁bestätigt	-7661
▁ständig	-7662
▁zeit	-7663
handels	-7664
▁Hintergrund	-7665
▁schwierigen	-7666
iode	-7667
▁vess	-7668
sequent	-7669
▁convention	-7670
▁technische	-7671
▁vorgenommen	-7672
▁strengthening	-7673
kap	-7674
▁Wal	-7675
▁regel	-7676
▁sides	-7677
▁vorliegende	-7678
▁tele	-7679
grenzen	-7680
▁Market	-7681
▁causes	-7682
▁Schaden	-7683
▁Arbeiten	-7684
▁teilweise	-7685
▁perspective	-7686
stac	-7687
attet	-7688
spunkt	-7689
▁anbel	-7690
▁ehemal	-7691
▁zufolge	-7692
▁geograph	-7693
▁includes	-7694
▁Vielleicht	-7695
▁supplement	-7696
▁superv	-7697
zusammen	-7698
▁persons	-7699
▁anerkannt	-7700
▁mil	-7701
▁ports	-7702
▁Bedürf	-7703
schätzung	-7704
▁übrigens	-7705
▁anbelangt	-7706
▁verantwortlich	-7707
iban	-7708
wegs	-7709
altet	-7710
▁türk	-7711
tering	-7712
▁prison	-7713
▁Belgian	-7714
▁verring	-7715
roh	-7716
öte	-7717
▁verstärkt	-7718
▁Alli	-7719
▁stimmt	-7720
DR	-7721
SP	-7722
▁Rule	-7723
▁lower	-7724
▁letter	-7725
▁obstac	-7726
▁Unabhäng	-7727
▁Verhältnis	-7728
urely	-7729
▁gave	-7730
▁perform	-7731
▁Anfragen	-7732
▁concrete	-7733
▁entscheid	-7734
▁illegalen	-7735
▁Internationalen	-7736
Mit	-7737
▁lar	-7738
▁2010	-7739
▁Israeli	-7740
▁Internal	-7741
▁occasions	-7742
Parl	-7743
ties	-7744
▁Ander	-7745
▁erfre	-7746
▁anyone	-7747
▁gelöst	-7748
▁Monetary	-7749
▁immediate	-7750
▁globalisation	-7751
üben	-7752
selben	-7753
▁income	-7754
▁geeigne	-7755
▁Stockholm	-7756
▁Arzneimittel	-7757
▁Unterschiede	-7758
ymb	-7759
▁37	-7760
▁Bos	-7761
tedly	-7762
erring	-7763
▁bureauc	-7764
▁defined	-7765
ettbewerbs	-7766
▁eingereicht	-7767
▁Sü	-7768
uell	-7769
▁Erd	-7770
▁größte	-7771
▁Personal	-7772
▁Az	-7773
atal	-7774
sman	-7775
haften	-7776
▁spent	-7777
▁Beweis	-7778
▁denken	-7779
▁Schweden	-7780
▁Vitorino	-7781
gleichheit	-7782
▁Bolk	-7783
istenz	-7784
▁begrüßt	-7785
kungen	-7786
▁volunt	-7787
▁Balkans	-7788
▁Element	-7789
▁describ	-7790
▁genannt	-7791
▁approval	-7792
ania	-7793
inki	-7794
▁ACP	-7795
▁eingele	-7796
▁gefördert	-7797
▁deliver	-7798
▁leading	-7799
▁Ereignisse	-7800
▁Herausforderung	-7801
▁Fonds	-7802
▁Anteil	-7803
▁Effizienz	-7804
▁operations	-7805
▁kulturellen	-7806
onia	-7807
volle	-7808
kräfte	-7809
▁Allgemein	-7810
▁participate	-7811
greif	-7812
▁hund	-7813
/2003)	-7814
▁underm	-7815
▁Vorhaben	-7816
▁diseases	-7817
▁Umweltschutz	-7818
EG	-7819
gra	-7820
äumt	-7821
▁inte	-7822
actory	-7823
▁Streit	-7824
▁umfang	-7825
▁Konflik	-7826
▁politic	-7827
▁suffering	-7828
▁fried	-7829
▁Unions	-7830
unruh	-7831
▁auffor	-7832
▁Elemente	-7833
▁erfolgt	-7834
▁According	-7835
apan	-7836
▁goal	-7837
▁thor	-7838
▁Jahrh	-7839
▁forced	-7840
▁Helsinki	-7841
versorgung	-7842
▁kl	-7843
▁sto	-7844
▁Asso	-7845
▁nahe	-7846
▁Bolkeste	-7847
▁beabsicht	-7848
▁",	-7849
fassung	-7850
▁attach	-7851
▁contrad	-7852
▁besseren	-7853
▁wiederholen	-7854
set	-7855
wel	-7856
führten	-7857
▁zuletzt	-7858
inational	-7859
▁Kompeten	-7860
▁Öl	-7861
▁einf	-7862
lichung	-7863
▁Sprachen	-7864
riminalität	-7865
zeuge	-7866
▁Comp	-7867
▁genutzt	-7868
▁annehmen	-7869
▁erleicht	-7870
▁interven	-7871
uführen	-7872
wirkung	-7873
▁Straßburg	-7874
▁betreffenden	-7875
isted	-7876
örder	-7877
lehnung	-7878
▁größer	-7879
▁Entwicklungen	-7880
▁Massen	-7881
▁mechan	-7882
▁maximum	-7883
▁insurance	-7884
▁Bolkestein	-7885
estic	-7886
▁stocks	-7887
▁regular	-7888
▁Gedanken	-7889
▁repeated	-7890
schau	-7891
▁Hindern	-7892
Parliament	-7893
▁allgemeine	-7894
IDS	-7895
geiz	-7896
▁Head	-7897
▁geltenden	-7898
▁transatlant	-7899
ronic	-7900
▁loss	-7901
▁offiz	-7902
▁nieder	-7903
▁ergeben	-7904
▁families	-7905
▁maritime	-7906
▁Widerspruch	-7907
ulated	-7908
worfen	-7909
▁serve	-7910
▁growing	-7911
▁committees	-7912
▁Überprüfung	-7913
▁letztendlich	-7914
▁Kohäs	-7915
▁mittl	-7916
angehör	-7917
orthern	-7918
▁Afrika	-7919
otechnolog	-7920
▁näher	-7921
▁occur	-7922
▁Common	-7923
beauftrag	-7924
▁destruction	-7925
wide	-7926
erous	-7927
▁belg	-7928
▁thereby	-7929
▁promotion	-7930
▁besonderen	-7931
▁Regierungschefs	-7932
▁Serb	-7933
▁Ausnahme	-7934
▁Sen	-7935
▁Verl	-7936
ichert	-7937
▁Presse	-7938
▁occasion	-7939
▁forthcoming	-7940
orm	-7941
meth	-7942
reche	-7943
▁Normen	-7944
▁ferner	-7945
▁changed	-7946
▁grundlegende	-7947
▁ships	-7948
▁started	-7949
▁mehreren	-7950
▁generally	-7951
▁Mitgliedern	-7952
▁communities	-7953
ather	-7954
CNS	-7955
▁Frü	-7956
▁Only	-7957
▁Alger	-7958
▁vorrang	-7959
▁planning	-7960
▁notwendige	-7961
▁Agriculture	-7962
▁Krankheiten	-7963
handelt	-7964
▁appreci	-7965
▁Modell	-7966
▁verlei	-7967
▁sensible	-7968
▁EG	-7969
tete	-7970
▁Erwart	-7971
▁implic	-7972
▁vertra	-7973
▁bestimmt	-7974
▁continent	-7975
▁otherwise	-7976
▁expression	-7977
oler	-7978
▁Kle	-7979
▁israel	-7980
▁veröff	-7981
mm	-7982
▁...	-7983
▁Tele	-7984
▁mill	-7985
lüssel	-7986
▁Every	-7987
▁Vorbe	-7988
▁Formen	-7989
▁realise	-7990
▁erfahren	-7991
eind	-7992
sparte	-7993
▁attend	-7994
▁dürfte	-7995
▁seines	-7996
▁Mitentscheid	-7997
hib	-7998
ients	-7999
▁Freiz	-8000
▁Verst	-8001
▁Assozi	-8002
▁multinational	-8003
▁unterstreichen	-8004
▁hören	-8005
▁oppos	-8006
▁reden	-8007
▁kennen	-8008
▁patent	-8009
▁secure	-8010
▁taxation	-8011
▁obligation	-8012
▁exec	-8013
▁seien	-8014
▁vorzu	-8015
reitung	-8016
▁Heimat	-8017
▁linked	-8018
stoff	-8019
schrän	-8020
▁bezug	-8021
▁space	-8022
▁Küsten	-8023
▁Märkte	-8024
kra	-8025
▁West	-8026
▁neues	-8027
▁stell	-8028
▁möglichen	-8029
hold	-8030
▁custom	-8031
▁spricht	-8032
▁Auditors	-8033
▁Petitions	-8034
▁eingehalten	-8035
sh	-8036
▁imag	-8037
▁truly	-8038
▁Problems	-8039
▁Katastrophe	-8040
uck	-8041
ragt	-8042
▁Idee	-8043
▁münd	-8044
Mitglie	-8045
▁jetzigen	-8046
▁wichtiges	-8047
▁Gleichgewicht	-8048
ano	-8049
vert	-8050
▁Post	-8051
▁kons	-8052
▁endorse	-8053
▁Vorteile	-8054
▁vorgelegten	-8055
▁Charakter	-8056
▁radio	-8057
▁impose	-8058
▁Analyse	-8059
▁geändert	-8060
gers	-8061
fällen	-8062
▁shared	-8063
▁richten	-8064
struction	-8065
▁diesbezü	-8066
▁expected	-8067
oted	-8068
andal	-8069
enswert	-8070
▁Herkunft	-8071
▁consolid	-8072
▁verständ	-8073
▁Ablehnung	-8074
▁letztlich	-8075
▁verurteilt	-8076
▁hoffentlich	-8077
20	-8078
hofs	-8079
atoren	-8080
▁adapt	-8081
▁knows	-8082
▁erfordert	-8083
▁respected	-8084
kund	-8085
tert	-8086
kommt	-8087
▁Danish	-8088
▁soeben	-8089
oon	-8090
▁Et	-8091
▁dro	-8092
▁Niel	-8093
abelling	-8094
ortugies	-8095
icherungs	-8096
▁Zeitplan	-8097
▁anwesend	-8098
▁Tschetschen	-8099
kre	-8100
cent	-8101
▁End	-8102
▁Fäh	-8103
▁fällt	-8104
▁accomp	-8105
▁Fischer	-8106
▁portugies	-8107
▁übernommen	-8108
▁ausgezeichneten	-8109
aters	-8110
▁falsch	-8111
▁lokalen	-8112
▁purposes	-8113
▁separate	-8114
▁Commissioners	-8115
▁?	-8116
▁types	-8117
assungen	-8118
▁Weißbuch	-8119
▁permanent	-8120
▁wettbewerbs	-8121
nü	-8122
▁197	-8123
▁dign	-8124
▁ende	-8125
▁faced	-8126
staatlichen	-8127
▁umzusetzen	-8128
anda	-8129
▁Neu	-8130
▁noise	-8131
▁binding	-8132
▁politics	-8133
▁verlangen	-8134
▁Gemeinsame	-8135
▁Kopenhagen	-8136
wa	-8137
ctor	-8138
▁Ele	-8139
▁Viele	-8140
▁belong	-8141
▁Subject	-8142
▁existence	-8143
▁Verbrechen	-8144
▁interested	-8145
hy	-8146
▁late	-8147
▁stabil	-8148
▁geäußert	-8149
▁35	-8150
▁ut	-8151
▁Wür	-8152
▁Islam	-8153
▁diplom	-8154
beziehen	-8155
▁Copenhagen	-8156
▁informiert	-8157
▁requirement	-8158
▁fü	-8159
istr	-8160
▁Betr	-8161
▁Wall	-8162
▁spok	-8163
anging	-8164
iene	-8165
pped	-8166
▁gerne	-8167
lechter	-8168
▁umfassend	-8169
▁vollkommen	-8170
▁übertragen	-8171
▁festzulegen	-8172
▁hervorgehoben	-8173
▁etc	-8174
steller	-8175
zwungen	-8176
▁submit	-8177
▁officials	-8178
▁informieren	-8179
RO	-8180
waren	-8181
▁Verk	-8182
▁lies	-8183
▁instance	-8184
▁anschließen	-8185
▁italienischen	-8186
▁dah	-8187
▁Brok	-8188
▁factors	-8189
olitische	-8190
▁Agency	-8191
▁moving	-8192
▁Agentur	-8193
▁bedeuten	-8194
▁protecting	-8195
ps	-8196
▁Hung	-8197
▁farming	-8198
▁distribution	-8199
zone	-8200
oking	-8201
reifen	-8202
▁müssten	-8203
▁beziehen	-8204
nam	-8205
based	-8206
▁erle	-8207
▁heav	-8208
▁Dring	-8209
▁erläut	-8210
▁Ordnung	-8211
▁Russian	-8212
▁briefly	-8213
▁justified	-8214
ffung	-8215
▁Trag	-8216
▁manage	-8217
▁suchen	-8218
▁Methode	-8219
▁Strateg	-8220
▁Univers	-8221
▁Betrifft	-8222
▁dän	-8223
chsel	-8224
▁Those	-8225
▁consistent	-8226
▁thre	-8227
▁Japan	-8228
▁break	-8229
▁tried	-8230
▁einzigen	-8231
▁demonstrated	-8232
sucht	-8233
▁voran	-8234
vereign	-8235
▁Zusatz	-8236
▁schlägt	-8237
▁timetable	-8238
▁Übergangs	-8239
▁genü	-8240
▁imper	-8241
▁toler	-8242
Vertrag	-8243
▁contained	-8244
▁Verhandlungs	-8245
▁Go	-8246
▁darunter	-8247
▁extended	-8248
▁resolved	-8249
▁whatever	-8250
▁Mitglieds	-8251
▁sovereign	-8252
enty	-8253
ppel	-8254
▁appar	-8255
rachten	-8256
▁Meinungs	-8257
▁praktisch	-8258
▁einheitlichen	-8259
▁decis	-8260
nehmern	-8261
program	-8262
sammlung	-8263
▁citizen	-8264
▁Perspekt	-8265
sc	-8266
bre	-8267
öhn	-8268
ball	-8269
ingu	-8270
▁deli	-8271
▁Zahlen	-8272
▁leiden	-8273
▁Auftrag	-8274
▁session	-8275
▁wenigen	-8276
▁Wirklichkeit	-8277
going	-8278
▁präz	-8279
▁verf	-8280
▁eingegangen	-8281
▁restrictions	-8282
▁EL	-8283
▁Ru	-8284
▁cle	-8285
inely	-8286
▁dauer	-8287
▁zurückge	-8288
▁continues	-8289
▁pun	-8290
teten	-8291
▁Status	-8292
▁Welche	-8293
▁Erzeugnisse	-8294
▁Gel	-8295
▁anz	-8296
everkehr	-8297
▁experts	-8298
ymp	-8299
fare	-8300
▁Som	-8301
otten	-8302
▁Ukra	-8303
▁glad	-8304
▁tätig	-8305
▁eingeb	-8306
▁wünsch	-8307
▁thorough	-8308
▁derartige	-8309
ites	-8310
▁Inn	-8311
▁mus	-8312
▁issu	-8313
▁gegebenen	-8314
▁improvements	-8315
umb	-8316
▁anstatt	-8317
▁Entlastung	-8318
▁legitimate	-8319
App	-8320
▁Ro	-8321
▁Grü	-8322
▁Außenpolitik	-8323
▁Mann	-8324
▁2001,	-8325
▁likely	-8326
▁source	-8327
▁Zwischen	-8328
▁entitled	-8329
▁bekämpfen	-8330
▁ministers	-8331
▁Dringlichkeit	-8332
ley	-8333
endes	-8334
▁Zielen	-8335
▁gewalt	-8336
▁finance	-8337
▁verstärken	-8338
▁3,	-8339
▁Are	-8340
▁tut	-8341
▁ausreichen	-8342
▁gesellschaft	-8343
▁Terr	-8344
▁coup	-8345
▁2000,	-8346
▁Klima	-8347
▁welch	-8348
▁demonstrate	-8349
▁Finn	-8350
▁From	-8351
▁prem	-8352
▁ready	-8353
atively	-8354
Applause	-8355
▁Nielson	-8356
▁ability	-8357
▁Sektoren	-8358
▁diesbezüglich	-8359
ME	-8360
orn	-8361
▁Sev	-8362
ström	-8363
Beifall	-8364
▁voranz	-8365
▁digital	-8366
▁Bildungs	-8367
▁Berichten	-8368
▁delighted	-8369
▁fishermen	-8370
▁Nahrungsmittel	-8371
▁lat	-8372
ulgar	-8373
▁gradu	-8374
▁hours	-8375
▁lautet	-8376
atischen	-8377
sprinzip	-8378
▁Prinzipien	-8379
▁bestimmter	-8380
▁Energy	-8381
erkennen	-8382
▁Treffen	-8383
▁evening	-8384
▁reagieren	-8385
▁sicherstellen	-8386
lying	-8387
riers	-8388
sibly	-8389
▁Such	-8390
trieben	-8391
▁genuinely	-8392
▁beschäftigen	-8393
lauben	-8394
▁zerst	-8395
▁reinfor	-8396
▁Gefahren	-8397
▁numerous	-8398
▁erscheint	-8399
fuhr	-8400
lock	-8401
igent	-8402
▁Berg	-8403
strafe	-8404
▁Offen	-8405
▁gender	-8406
uts	-8407
olon	-8408
▁ging	-8409
8/	-8410
▁Besuch	-8411
▁Gewähr	-8412
▁incident	-8413
▁Umständen	-8414
▁accidents	-8415
▁Home	-8416
▁visit	-8417
▁worse	-8418
▁Chechn	-8419
▁Signal	-8420
▁erinnert	-8421
▁threaten	-8422
▁NGOs	-8423
▁wide	-8424
▁Another	-8425
▁menschlichen	-8426
▁ca	-8427
▁wert	-8428
▁bedau	-8429
▁bezahl	-8430
▁via	-8431
▁Secret	-8432
▁option	-8433
▁sources	-8434
▁Chechnya	-8435
▁historic	-8436
▁ras	-8437
▁ELDR	-8438
▁Other	-8439
▁warten	-8440
▁Freedom	-8441
▁Handeln	-8442
▁sichern	-8443
▁freiwill	-8444
▁conflicts	-8445
▁beteiligen	-8446
▁compliance	-8447
▁mal	-8448
icted	-8449
ollar	-8450
▁älter	-8451
▁meaning	-8452
brit	-8453
▁Stoffe	-8454
▁target	-8455
▁unless	-8456
▁unzure	-8457
▁opinions	-8458
▁weiteres	-8459
▁voluntary	-8460
▁Wiederaufbau	-8461
▁Haushaltsplan	-8462
▁Göte	-8463
▁Obwohl	-8464
▁Revision	-8465
▁emergency	-8466
occ	-8467
spl	-8468
▁nütz	-8469
▁benötigen	-8470
▁personally	-8471
Re	-8472
rates	-8473
ücken	-8474
▁secondly	-8475
▁electronic	-8476
▁Akt	-8477
sorge	-8478
behörden	-8479
▁ehrgeiz	-8480
▁verbind	-8481
entions	-8482
ikations	-8483
▁guaranteed	-8484
▁Erk	-8485
rimes	-8486
▁deleg	-8487
▁labelling	-8488
▁geprüft	-8489
▁concluded	-8490
zedon	-8491
▁strik	-8492
▁verwe	-8493
zufügen	-8494
▁folgende	-8495
▁monetary	-8496
▁peaceful	-8497
▁Wesentlichen	-8498
bo	-8499
▁Mut	-8500
▁dan	-8501
▁diss	-8502
▁Meines	-8503
▁wonach	-8504
▁emphasis	-8505
gibt	-8506
▁kam	-8507
ancial	-8508
▁friends	-8509
▁welcher	-8510
▁gewissen	-8511
▁operators	-8512
2,	-8513
ints	-8514
▁hands	-8515
klärung	-8516
▁African	-8517
▁Ukraine	-8518
▁Protocol	-8519
▁Flüchtlinge	-8520
borg	-8521
▁condition	-8522
▁durchzuführen	-8523
Die	-8524
what	-8525
atell	-8526
techn	-8527
▁nations	-8528
▁Industry	-8529
▁involves	-8530
▁Bestandteil	-8531
▁gl	-8532
avour	-8533
▁sorg	-8534
▁incent	-8535
▁Untersuchung	-8536
▁landwirtschaft	-8537
▁Car	-8538
▁Galic	-8539
▁Häfen	-8540
▁Ihrem	-8541
▁attemp	-8542
▁Sozialdem	-8543
▁continued	-8544
▁verweisen	-8545
▁Regionalpolitik	-8546
stens	-8547
▁isol	-8548
▁remo	-8549
▁Despite	-8550
▁vehicles	-8551
▁contracts	-8552
ympath	-8553
▁Verhe	-8554
▁scale	-8555
▁voice	-8556
britann	-8557
▁waters	-8558
▁Niederlan	-8559
latz	-8560
▁Lamy	-8561
▁drawing	-8562
▁kürzlich	-8563
▁moreover	-8564
▁traditional	-8565
nt	-8566
ilen	-8567
ahren	-8568
▁imposed	-8569
▁operate	-8570
▁ordnungs	-8571
▁Großbritann	-8572
▁Einrichtungen	-8573
)]	-8574
lose	-8575
▁Yet	-8576
örper	-8577
▁Kenn	-8578
▁phys	-8579
▁Straft	-8580
▁passed	-8581
▁happens	-8582
▁Zimbabwe	-8583
▁codecision	-8584
▁Bo	-8585
▁Ern	-8586
▁rates	-8587
▁react	-8588
▁Nether	-8589
▁Ziffer	-8590
sprachen	-8591
▁bemühen	-8592
▁tatsäch	-8593
▁verloren	-8594
▁Netherlands	-8595
▁territorial	-8596
ola	-8597
ugt	-8598
▁Imm	-8599
indungen	-8600
▁amounts	-8601
▁welchen	-8602
▁eingebracht	-8603
utr	-8604
nach	-8605
▁Bur	-8606
▁exem	-8607
▁Während	-8608
▁allowing	-8609
politischen	-8610
▁Ben	-8611
▁Dän	-8612
undes	-8613
▁Auth	-8614
▁Beste	-8615
▁Sorgen	-8616
▁Produkt	-8617
▁equally	-8618
▁niemals	-8619
▁precise	-8620
▁exception	-8621
▁Fischereip	-8622
▁regulatory	-8623
▁Rechtsstaat	-8624
▁schwedischen	-8625
izin	-8626
▁bit	-8627
cause	-8628
▁entry	-8629
▁Gesetze	-8630
▁clarify	-8631
▁complic	-8632
▁widersp	-8633
ringerung	-8634
▁Praktiken	-8635
▁unzureich	-8636
▁represented	-8637
▁sla	-8638
weder	-8639
ärkte	-8640
▁ECHO	-8641
▁Anlass	-8642
▁Gipfelt	-8643
▁Göteborg	-8644
▁Verheugen	-8645
▁impression	-8646
COS	-8647
abor	-8648
opoul	-8649
raums	-8650
▁Insel	-8651
pendence	-8652
▁dritten	-8653
▁zweitens	-8654
▁requested	-8655
▁stehenden	-8656
abling	-8657
mutzung	-8658
▁airport	-8659
▁Abkommens	-8660
yed	-8661
▁Hal	-8662
▁intends	-8663
▁Pa	-8664
ruit	-8665
▁Bla	-8666
▁Van	-8667
▁talks	-8668
▁dignity	-8669
schaffung	-8670
▁perfectly	-8671
▁Tschetschenien	-8672
aria	-8673
feil	-8674
▁oblige	-8675
▁stattf	-8676
lässlich	-8677
▁Because	-8678
▁wichtigste	-8679
▁üb	-8680
oriz	-8681
▁rac	-8682
▁gestr	-8683
gelungen	-8684
▁Deswegen	-8685
▁difference	-8686
▁IC	-8687
▁Cha	-8688
▁fighting	-8689
▁verstanden	-8690
▁überzeugen	-8691
▁Außenminister	-8692
▁noted	-8693
▁vorbe	-8694
▁schließen	-8695
spolitischen	-8696
nüp	-8697
▁CO	-8698
▁Ents	-8699
▁Ober	-8700
▁Anmerk	-8701
▁crimes	-8702
ügigkeit	-8703
▁somewhat	-8704
▁Employment	-8705
▁erhebliche	-8706
▁credibility	-8707
zeß	-8708
▁PSE	-8709
▁abol	-8710
▁fiel	-8711
▁Befür	-8712
samkeit	-8713
▁Herzen	-8714
▁scheme	-8715
▁Behörde	-8716
▁geboten	-8717
▁verfügt	-8718
▁Positionen	-8719
▁Strukturen	-8720
▁Poet	-8721
▁writ	-8722
▁latter	-8723
▁approve	-8724
▁undertaken	-8725
mb	-8726
laubt	-8727
steht	-8728
▁oral	-8729
▁exists	-8730
▁erheblich	-8731
upts	-8732
▁Sim	-8733
loyed	-8734
uting	-8735
▁Ganz	-8736
schung	-8737
▁Relig	-8738
achteil	-8739
▁ernsthaft	-8740
▁beschränken	-8741
▁encouraging	-8742
spiel	-8743
▁Begr	-8744
▁Arten	-8745
▁Verzö	-8746
▁placed	-8747
▁welfare	-8748
▁angebracht	-8749
itzt	-8750
▁Soll	-8751
▁apart	-8752
dienste	-8753
▁unfair	-8754
▁letzter	-8755
▁abstimmen	-8756
entwicklung	-8757
gy	-8758
▁Prof	-8759
ategory	-8760
▁friend	-8761
▁verlangt	-8762
▁gerichtet	-8763
▁Poettering	-8764
▁befürworten	-8765
institutional	-8766
▁virt	-8767
▁nächste	-8768
▁prosper	-8769
▁umfassenden	-8770
▁Freizügigkeit	-8771
ork	-8772
▁Su	-8773
▁tä	-8774
▁beunruh	-8775
▁monopol	-8776
▁minority	-8777
▁Gegensatz	-8778
.'	-8779
lös	-8780
olz	-8781
▁aver	-8782
▁Waren	-8783
▁Anzahl	-8784
▁spread	-8785
▁Öffnung	-8786
▁applying	-8787
▁association	-8788
ails	-8789
▁Don	-8790
▁2002,	-8791
▁alten	-8792
▁assure	-8793
▁spreche	-8794
▁Antworten	-8795
▁politicians	-8796
▁Bil	-8797
wareness	-8798
▁offenen	-8799
▁Debatten	-8800
▁Währungs	-8801
▁ultimately	-8802
▁technologies	-8803
die	-8804
udes	-8805
▁wit	-8806
▁secret	-8807
ulations	-8808
▁Kindern	-8809
▁Reaktion	-8810
▁revision	-8811
▁liability	-8812
▁versichern	-8813
osal	-8814
▁NRO	-8815
▁grav	-8816
▁phase	-8817
fertigt	-8818
▁tackle	-8819
▁automat	-8820
▁Pakistan	-8821
▁freedoms	-8822
▁Abgeordneter	-8823
tige	-8824
▁capable	-8825
▁proceedings	-8826
▁af	-8827
sein	-8828
itizens	-8829
▁centre	-8830
▁bewegen	-8831
▁verleihen	-8832
▁operational	-8833
▁griechischen	-8834
▁path	-8835
▁room	-8836
▁stake	-8837
▁acquis	-8838
▁damals	-8839
▁spielt	-8840
▁suspend	-8841
▁consumption	-8842
utin	-8843
▁Innov	-8844
▁fleet	-8845
mittelt	-8846
▁Fisher	-8847
▁beseit	-8848
▁Systeme	-8849
▁examine	-8850
▁treated	-8851
▁Politiker	-8852
▁richtigen	-8853
3,	-8854
ibet	-8855
▁Canc	-8856
schnitt	-8857
▁generell	-8858
▁qualifiz	-8859
▁facilitate	-8860
▁Verringerung	-8861
▁festgelegten	-8862
rise	-8863
verän	-8864
▁Then	-8865
vollen	-8866
▁margin	-8867
▁Schlüssel	-8868
tion	-8869
▁ung	-8870
▁vig	-8871
bring	-8872
▁equip	-8873
▁penalty	-8874
▁Argument	-8875
▁nationals	-8876
▁keineswegs	-8877
xts	-8878
▁vert	-8879
▁jenen	-8880
▁easier	-8881
▁tragic	-8882
ätigkeiten	-8883
▁Erarbeitung	-8884
▁considering	-8885
▁individuals	-8886
▁4,	-8887
▁Äuß	-8888
aussch	-8889
waffen	-8890
▁eröff	-8891
▁elimin	-8892
▁retain	-8893
▁proportion	-8894
gemeinschaft	-8895
pekt	-8896
▁spät	-8897
▁behin	-8898
levision	-8899
▁negotiating	-8900
▁wom	-8901
▁Barn	-8902
▁Nein	-8903
▁inade	-8904
▁renew	-8905
▁prohib	-8906
▁vieler	-8907
urteilung	-8908
▁examples	-8909
▁mechanism	-8910
eter	-8911
▁debt	-8912
▁allzu	-8913
▁Männer	-8914
ktivität	-8915
▁Hinweis	-8916
▁election	-8917
▁nevertheless	-8918
▁Unabhängigkeit	-8919
engt	-8920
herr	-8921
mbud	-8922
▁Staates	-8923
▁chemical	-8924
▁verhindert	-8925
▁Arbeitsplatz	-8926
▁vors	-8927
▁reduz	-8928
▁nachzu	-8929
▁Gegenstand	-8930
limm	-8931
lated	-8932
▁flow	-8933
islang	-8934
▁Alban	-8935
▁plant	-8936
▁großes	-8937
▁lebens	-8938
▁traged	-8939
▁koordin	-8940
▁vessels	-8941
▁awareness	-8942
▁processes	-8943
▁finanziert	-8944
▁governance	-8945
erte	-8946
oton	-8947
gehens	-8948
orrekt	-8949
ausende	-8950
▁abziel	-8951
▁angest	-8952
▁solches	-8953
▁spending	-8954
tung	-8955
▁Any	-8956
▁Sow	-8957
▁Niveau	-8958
▁Gesicht	-8959
▁Gleichstellung	-8960
barer	-8961
▁1995	-8962
▁tief	-8963
ifteen	-8964
▁achten	-8965
▁religious	-8966
▁innovative	-8967
▁achievement	-8968
▁beschäftigt	-8969
▁sele	-8970
▁Assembly	-8971
▁Erfahrung	-8972
▁beigetragen	-8973
▁Ag	-8974
▁erf	-8975
angel	-8976
▁frequ	-8977
seh	-8978
gested	-8979
▁außen	-8980
▁disag	-8981
systems	-8982
▁Genehm	-8983
▁Organe	-8984
▁Authority	-8985
▁staatlichen	-8986
▁Verbesserungen	-8987
▁pet	-8988
▁Mart	-8989
▁define	-8990
▁schlecht	-8991
▁auffordern	-8992
▁derzeitige	-8993
rem	-8994
▁2.	-8995
aret	-8996
aaten	-8997
▁base	-8998
Christ	-8999
rechten	-9000
▁permit	-9001
▁primary	-9002
▁einstimm	-9003
▁beschleun	-9004
▁Konsequenzen	-9005
Ab	-9006
arz	-9007
lined	-9008
▁lose	-9009
▁Anwend	-9010
▁stelle	-9011
▁befindet	-9012
▁Abschaffung	-9013
SV	-9014
enkt	-9015
▁Bus	-9016
aries	-9017
▁Geist	-9018
▁innere	-9019
▁played	-9020
▁protest	-9021
▁künftige	-9022
▁medicines	-9023
▁militärischen	-9024
GC	-9025
umed	-9026
▁Col	-9027
▁bound	-9028
▁frage	-9029
mitglied	-9030
▁wollten	-9031
▁restruct	-9032
vorschläge	-9033
▁Erfordern	-9034
▁bedeutsam	-9035
▁Erwartungen	-9036
▁Zentralbank	-9037
):	-9038
lared	-9039
▁gebill	-9040
▁überall	-9041
▁überaus	-9042
▁mindestens	-9043
▁weitgehend	-9044
overy	-9045
anders	-9046
▁Anhör	-9047
▁welcomed	-9048
emark	-9049
tzeit	-9050
▁valu	-9051
▁bestätigen	-9052
▁membership	-9053
▁vorschlagen	-9054
.30	-9055
▁Korea	-9056
▁echte	-9057
▁Bulgar	-9058
▁clause	-9059
▁Familie	-9060
▁gezogen	-9061
▁written	-9062
▁EP	-9063
▁ru	-9064
ointed	-9065
▁Coton	-9066
▁agency	-9067
regelung	-9068
▁correspon	-9069
▁endeavour	-9070
▁preparing	-9071
▁Seeverkehr	-9072
chmal	-9073
reyer	-9074
▁Tage	-9075
ugoslaw	-9076
▁distin	-9077
▁qualit	-9078
▁Männern	-9079
stehenden	-9080
▁verstehe	-9081
▁considers	-9082
▁vereinbar	-9083
▁GMOs	-9084
ischem	-9085
▁Freude	-9086
▁described	-9087
▁angenommenen	-9088
Ber	-9089
essene	-9090
▁solve	-9091
verletz	-9092
▁adjust	-9093
▁vision	-9094
▁Angaben	-9095
▁innovation	-9096
▁nonetheless	-9097
▁rechtlichen	-9098
▁Stabilitätspakt	-9099
▁Latin	-9100
▁Maced	-9101
inen	-9102
▁Opt	-9103
▁sinc	-9104
▁Verord	-9105
▁Cotonou	-9106
▁Dialogs	-9107
▁Fisheries	-9108
▁Wohlstand	-9109
▁Vorausschau	-9110
▁Rechnungshof	-9111
bald	-9112
ette	-9113
kamp	-9114
▁hom	-9115
▁rich	-9116
▁Teilen	-9117
▁Vorrang	-9118
▁extension	-9119
laubwürdigkeit	-9120
reb	-9121
▁kept	-9122
▁Flugh	-9123
▁mobil	-9124
▁prosec	-9125
▁teilen	-9126
▁zugleich	-9127
▁February	-9128
▁implications	-9129
▁ursprünglichen	-9130
frikan	-9131
ishing	-9132
wiegen	-9133
▁wünsche	-9134
▁sorgfält	-9135
▁verlieren	-9136
▁Technologien	-9137
▁Glaubwürdigkeit	-9138
▁Heads	-9139
▁Techn	-9140
▁Perhaps	-9141
▁Dänemark	-9142
▁Leistungen	-9143
▁funktioniert	-9144
▁Aug	-9145
ulich	-9146
ütung	-9147
▁Denmark	-9148
▁electric	-9149
▁Generation	-9150
▁Beteiligten	-9151
▁Todesstrafe	-9152
astro	-9153
▁Eben	-9154
ferences	-9155
▁gehalten	-9156
▁privaten	-9157
▁published	-9158
hus	-9159
icip	-9160
▁Blut	-9161
▁mach	-9162
▁Niger	-9163
▁Februar	-9164
▁protected	-9165
▁Parlamentar	-9166
regeln	-9167
▁pillar	-9168
▁sensib	-9169
▁Barnier	-9170
▁planned	-9171
▁Citizens	-9172
ifications	-9173
▁Liberalen	-9174
▁Standards	-9175
ws	-9176
rid	-9177
▁Term	-9178
▁gründ	-9179
▁paper	-9180
▁August	-9181
▁referring	-9182
▁entscheidende	-9183
▁IGC	-9184
folgung	-9185
▁century	-9186
▁relativ	-9187
▁urgency	-9188
▁genannte	-9189
▁intensiv	-9190
hilos	-9191
▁benef	-9192
▁Greens	-9193
▁abhäng	-9194
▁danach	-9195
▁geregelt	-9196
▁ausgesetzt	-9197
ables	-9198
▁Darum	-9199
%.	-9200
sekret	-9201
▁believes	-9202
instrument	-9203
▁Gewährleistung	-9204
NL	-9205
det	-9206
aler	-9207
▁hol	-9208
▁Wähl	-9209
▁2003,	-9210
▁sprach	-9211
▁Vorlage	-9212
▁zuständig	-9213
AC	-9214
fisch	-9215
▁truth	-9216
▁substance	-9217
▁humanitäre	-9218
▁preventing	-9219
▁Produktions	-9220
▁competences	-9221
▁durchführen	-9222
▁Arbeitsplätzen	-9223
▁reconstruction	-9224
▁Beitrittsländer	-9225
▁bir	-9226
wegung	-9227
▁trifft	-9228
▁wenige	-9229
▁studies	-9230
▁begonnen	-9231
▁decisive	-9232
▁vergleich	-9233
▁independence	-9234
▁Byr	-9235
ymbol	-9236
▁gesp	-9237
▁prove	-9238
rechter	-9239
▁details	-9240
▁Dokumente	-9241
▁Nachdruck	-9242
▁exclusion	-9243
▁Großbritannien	-9244
▁cod	-9245
▁Also	-9246
▁court	-9247
▁Besitz	-9248
▁Vorred	-9249
▁sofern	-9250
▁Ausgang	-9251
▁mobility	-9252
▁allocated	-9253
▁antworten	-9254
▁Mittelpunkt	-9255
▁Rad	-9256
▁sold	-9257
▁12.00	-9258
▁engag	-9259
▁double	-9260
▁pursue	-9261
▁Mazedon	-9262
▁Zeichen	-9263
▁witness	-9264
▁verdient	-9265
ini	-9266
▁Platz	-9267
▁pleas	-9268
▁rechts	-9269
anischen	-9270
▁democrat	-9271
▁veränder	-9272
▁suggested	-9273
EU	-9274
▁Fach	-9275
▁cell	-9276
▁crop	-9277
▁mitteilen	-9278
▁qualified	-9279
chst	-9280
▁Mos	-9281
räsid	-9282
älfte	-9283
▁gone	-9284
▁Exper	-9285
▁Welth	-9286
▁bemer	-9287
▁union	-9288
▁Kategor	-9289
▁massive	-9290
▁solange	-9291
abilities	-9292
▁requests	-9293
▁verteidigen	-9294
▁Bürgerbeauftrag	-9295
bit	-9296
ris	-9297
▁Araf	-9298
▁Rass	-9299
▁York	-9300
active	-9301
▁Würde	-9302
▁Grünen	-9303
▁slight	-9304
▁jährlich	-9305
▁confirmed	-9306
▁maintaining	-9307
▁hil	-9308
▁kil	-9309
akten	-9310
▁meat	-9311
ungsan	-9312
▁biolog	-9313
▁Militär	-9314
▁associated	-9315
▁Kriminalität	-9316
zio	-9317
▁bra	-9318
viour	-9319
wirkt	-9320
ground	-9321
ranken	-9322
versch	-9323
vertre	-9324
▁daily	-9325
spartei	-9326
isierten	-9327
▁erstens	-9328
▁gewährt	-9329
▁parallel	-9330
▁arguments	-9331
▁inzwischen	-9332
▁einzusetzen	-9333
12	-9334
inu	-9335
▁nöt	-9336
▁Arab	-9337
▁lauf	-9338
sätzen	-9339
verein	-9340
▁Byrne	-9341
▁goals	-9342
▁Atlant	-9343
eitigung	-9344
▁reprodu	-9345
▁fil	-9346
▁bann	-9347
▁fehlt	-9348
▁Commun	-9349
mbudsman	-9350
▁Polizei	-9351
▁average	-9352
▁relates	-9353
sprozesses	-9354
▁folgenden	-9355
ofern	-9356
▁1999,	-9357
▁Hafen	-9358
ältigen	-9359
▁KMU	-9360
▁verz	-9361
atible	-9362
▁While	-9363
▁Berufs	-9364
▁Morocc	-9365
▁appell	-9366
▁spoken	-9367
bereiche	-9368
▁Wirkung	-9369
▁dankbar	-9370
▁insofern	-9371
▁Secretary	-9372
▁Befugnisse	-9373
▁satisfactory	-9374
▁High	-9375
▁irre	-9376
▁russ	-9377
akzept	-9378
▁Regime	-9379
▁aftern	-9380
▁Schäden	-9381
▁Welthand	-9382
▁verwiesen	-9383
▁speziellen	-9384
▁Women	-9385
▁deter	-9386
▁facts	-9387
▁deserv	-9388
▁entfern	-9389
chanismus	-9390
▁ablehnen	-9391
▁erwartet	-9392
wirklichung	-9393
▁beeinträcht	-9394
▁eingeleitet	-9395
▁investments	-9396
dent	-9397
otte	-9398
union	-9399
▁Halb	-9400
igaret	-9401
▁seeks	-9402
▁Ausmaß	-9403
▁dritte	-9404
▁heutige	-9405
▁payment	-9406
▁speaker	-9407
▁uniform	-9408
▁herrscht	-9409
lichkeiten	-9410
▁acknowled	-9411
▁spezifischen	-9412
ulsory	-9413
▁blood	-9414
▁embry	-9415
▁Modern	-9416
▁External	-9417
▁Anpassung	-9418
▁Mobilität	-9419
▁Vorgehens	-9420
▁Bereitschaft	-9421
▁considerations	-9422
ba	-9423
▁Ohne	-9424
gebiet	-9425
▁Beamten	-9426
▁remarks	-9427
▁protocol	-9428
▁Socialists	-9429
▁maintained	-9430
▁Ausarbeitung	-9431
irk	-9432
grenze	-9433
▁allows	-9434
▁Wahrung	-9435
▁Unternehmens	-9436
utive	-9437
▁Inst	-9438
▁noon	-9439
▁wiederholt	-9440
▁politically	-9441
▁Gra	-9442
▁Lärm	-9443
ierender	-9444
▁befasst	-9445
▁globalen	-9446
▁thanking	-9447
▁Wid	-9448
ologie	-9449
▁2002.	-9450
▁amending	-9451
▁disasters	-9452
▁unverzüglich	-9453
▁Kommunikation	-9454
Er	-9455
irms	-9456
▁zuge	-9457
urning	-9458
▁festzustellen	-9459
nex	-9460
▁300	-9461
▁Har	-9462
▁opposite	-9463
▁television	-9464
▁Kooperation	-9465
▁Verwirklichung	-9466
ski	-9467
eten	-9468
organ	-9469
▁Mich	-9470
▁Hälfte	-9471
▁preced	-9472
▁sexual	-9473
▁reaction	-9474
▁afternoon	-9475
übt	-9476
▁tre	-9477
▁links	-9478
▁elsewhere	-9479
▁rechtzeit	-9480
▁teilnehmen	-9481
erechtigkeit	-9482
▁militärische	-9483
...	-9484
geg	-9485
▁Lab	-9486
▁Tal	-9487
ispiele	-9488
▁displa	-9489
▁orient	-9490
▁places	-9491
▁gezwungen	-9492
▁Unterschied	-9493
pay	-9494
mien	-9495
netz	-9496
▁Stre	-9497
fleisch	-9498
zubauen	-9499
▁Arafat	-9500
atically	-9501
▁excessive	-9502
▁Mitarbeiter	-9503
▁electricity	-9504
NG	-9505
▁bee	-9506
endet	-9507
▁Neben	-9508
▁freie	-9509
▁Präsid	-9510
▁equipment	-9511
▁Zuständigkeiten	-9512
hört	-9513
märkte	-9514
▁Instead	-9515
▁determined	-9516
▁SME	-9517
▁hän	-9518
▁sad	-9519
cohol	-9520
(2001)	-9521
▁users	-9522
▁Entscheidungs	-9523
▁supplementary	-9524
ZB	-9525
ques	-9526
innock	-9527
▁breit	-9528
▁gutes	-9529
ugoslav	-9530
qualität	-9531
wachstum	-9532
▁coherent	-9533
ming	-9534
▁pie	-9535
oning	-9536
spart	-9537
▁felt	-9538
orient	-9539
▁Having	-9540
▁einsch	-9541
▁erhält	-9542
▁Kinnock	-9543
▁mission	-9544
▁schrift	-9545
▁minorities	-9546
do	-9547
yc	-9548
▁host	-9549
hängen	-9550
▁zuges	-9551
ystemen	-9552
▁highest	-9553
einanders	-9554
▁overcome	-9555
▁bezeichnet	-9556
▁Fremdenverkehr	-9557
▁Trad	-9558
alition	-9559
▁careful	-9560
▁largely	-9561
▁legally	-9562
▁Yugoslav	-9563
▁compared	-9564
▁learning	-9565
▁behaviour	-9566
▁collective	-9567
▁introducing	-9568
meid	-9569
üssen	-9570
▁Iraqi	-9571
▁spoke	-9572
▁latest	-9573
ervation	-9574
▁rational	-9575
▁Beispiele	-9576
▁announced	-9577
▁entwickelten	-9578
ague	-9579
akis	-9580
▁dri	-9581
▁sor	-9582
▁1994	-9583
igerung	-9584
haushalt	-9585
▁Journal	-9586
▁definit	-9587
▁partner	-9588
▁gewünsch	-9589
▁Rassismus	-9590
▁gas	-9591
iling	-9592
eignet	-9593
▁2003.	-9594
▁höchst	-9595
▁Rentner	-9596
▁recovery	-9597
▁obstacles	-9598
▁Gipfeltreffen	-9599
▁Bö	-9600
▁Mug	-9601
▁Dikt	-9602
▁Kräfte	-9603
▁prepare	-9604
▁supposed	-9605
▁Vertretern	-9606
0)	-9607
▁vacc	-9608
▁afford	-9609
▁beraten	-9610
▁gelingt	-9611
▁holding	-9612
▁Eurostat	-9613
▁domestic	-9614
▁Financial	-9615
▁36	-9616
äumen	-9617
▁Amts	-9618
▁taxes	-9619
▁Aufent	-9620
▁expens	-9621
▁Vorteil	-9622
▁Weiteren	-9623
▁cooperate	-9624
▁satisfied	-9625
zuschließen	-9626
▁Zusammenhalt	-9627
sson	-9628
aching	-9629
▁kurzem	-9630
▁seeing	-9631
▁starke	-9632
▁Verlauf	-9633
▁obliged	-9634
bod	-9635
igend	-9636
▁fine	-9637
gendes	-9638
▁touch	-9639
ception	-9640
▁Eigent	-9641
▁absurd	-9642
▁gelegt	-9643
▁please	-9644
▁offenbar	-9645
▁constantly	-9646
▁Formulierung	-9647
▁effectiveness	-9648
▁kn	-9649
▁mid	-9650
struct	-9651
▁Reduz	-9652
session	-9653
behandlung	-9654
▁competent	-9655
▁Zielsetzungen	-9656
DP	-9657
mann	-9658
uung	-9659
ipfel	-9660
▁Roth	-9661
ietnam	-9662
lieben	-9663
▁Clear	-9664
▁Feira	-9665
▁horiz	-9666
▁Mandat	-9667
▁einzig	-9668
dire	-9669
▁Non	-9670
▁Gang	-9671
▁sympath	-9672
▁überprü	-9673
ichtlinie	-9674
▁uncertain	-9675
▁Errichtung	-9676
oub	-9677
dien	-9678
▁EZB	-9679
▁got	-9680
finanz	-9681
▁Güter	-9682
immungs	-9683
▁purely	-9684
▁wealth	-9685
gerichts	-9686
▁Control	-9687
▁ratifiz	-9688
▁tourism	-9689
▁Entschäd	-9690
▁ausgehen	-9691
▁communications	-9692
IS	-9693
auso	-9694
▁ärm	-9695
▁sout	-9696
attern	-9697
▁Defiz	-9698
cycling	-9699
aktionen	-9700
▁deliber	-9701
▁waiting	-9702
▁früheren	-9703
▁statistics	-9704
▁humanitären	-9705
▁einheitliche	-9706
adv	-9707
agn	-9708
nor	-9709
ümm	-9710
weilen	-9711
▁abuse	-9712
▁natür	-9713
▁Bundes	-9714
▁illustr	-9715
▁gestatten	-9716
▁jedenfalls	-9717
▁Bevölkerungs	-9718
ieb	-9719
uzz	-9720
aket	-9721
gebie	-9722
ulate	-9723
utragen	-9724
▁economies	-9725
▁unterbreitet	-9726
▁45	-9727
icks	-9728
kohol	-9729
▁Schm	-9730
▁charge	-9731
▁firmly	-9732
▁Prozent	-9733
▁amended	-9734
▁wachsen	-9735
▁ländliche	-9736
▁Beseitigung	-9737
▁zurückzuführen	-9738
aron	-9739
stoß	-9740
▁west	-9741
▁assume	-9742
▁erhöht	-9743
▁indicated	-9744
▁universal	-9745
eb	-9746
mon	-9747
▁Lo	-9748
▁lä	-9749
ührt	-9750
▁Krie	-9751
▁Wats	-9752
▁unre	-9753
▁angekünd	-9754
▁angemessene	-9755
öße	-9756
▁Kal	-9757
necess	-9758
▁night	-9759
▁straf	-9760
▁bislang	-9761
▁vorsieht	-9762
▁wirkliche	-9763
rik	-9764
▁irak	-9765
▁beruf	-9766
stoffen	-9767
▁advice	-9768
▁choose	-9769
▁enttäus	-9770
▁finding	-9771
▁helping	-9772
▁wirksame	-9773
▁zurückzu	-9774
▁reiterate	-9775
▁ordnungsgemäß	-9776
▁Untersuchungen	-9777
▁pol	-9778
grunde	-9779
▁Watson	-9780
führungs	-9781
▁Widerst	-9782
▁Consequently	-9783
unk	-9784
berg	-9785
viel	-9786
▁Dass	-9787
ighten	-9788
▁preca	-9789
▁Alters	-9790
▁fassen	-9791
▁resist	-9792
Mitglied	-9793
▁alcohol	-9794
▁Grünbuch	-9795
▁zugrunde	-9796
▁Mazedonien	-9797
▁difficulty	-9798
▁zusätzlichen	-9799
spar	-9800
▁Fang	-9801
▁Pass	-9802
niveau	-9803
▁ermut	-9804
▁Schuld	-9805
▁haupts	-9806
▁Ursachen	-9807
▁Noch	-9808
reiber	-9809
terung	-9810
▁valid	-9811
▁Volkes	-9812
astricht	-9813
hilosoph	-9814
▁Autonom	-9815
▁Sektors	-9816
▁keeping	-9817
▁schreck	-9818
▁bedanken	-9819
▁Beachtung	-9820
▁constitute	-9821
▁expectations	-9822
▁Bek	-9823
▁Here	-9824
Mittel	-9825
▁Export	-9826
▁federal	-9827
▁running	-9828
▁welches	-9829
▁extensive	-9830
▁acknowledge	-9831
iry	-9832
▁Sal	-9833
▁Nutz	-9834
▁wait	-9835
rohung	-9836
▁disposal	-9837
▁millions	-9838
▁stärkere	-9839
▁Problematik	-9840
▁Vorsitzenden	-9841
ato	-9842
ids	-9843
ras	-9844
wers	-9845
erzeug	-9846
▁absen	-9847
▁Socialist	-9848
▁Beitrittsk	-9849
▁Mex	-9850
▁Does	-9851
▁Klein	-9852
▁verfüg	-9853
▁possibly	-9854
▁unnecess	-9855
▁wiederum	-9856
▁abgestimmt	-9857
▁verurteilen	-9858
▁Katastrophen	-9859
8,	-9860
ery	-9861
ike	-9862
▁Mü	-9863
▁unn	-9864
▁fields	-9865
▁figure	-9866
enntnisse	-9867
missionen	-9868
▁Simbabwe	-9869
▁mittleren	-9870
▁domin	-9871
wärtige	-9872
▁treaty	-9873
resident	-9874
▁elector	-9875
▁trading	-9876
▁Beschrän	-9877
▁southern	-9878
▁primarily	-9879
▁Maastricht	-9880
▁beschließen	-9881
▁französische	-9882
13	-9883
ala	-9884
auft	-9885
inal	-9886
▁leads	-9887
▁brings	-9888
▁depart	-9889
▁category	-9890
▁aufnehmen	-9891
▁entstanden	-9892
IB	-9893
lez	-9894
▁ster	-9895
▁vorn	-9896
▁Ident	-9897
▁envis	-9898
▁zweck	-9899
▁options	-9900
▁accounts	-9901
▁Gespräche	-9902
▁inclusion	-9903
▁highlighted	-9904
▁interessiert	-9905
po	-9906
kommun	-9907
ranche	-9908
▁twenty	-9909
▁auftreten	-9910
▁Real	-9911
▁Respekt	-9912
▁poorest	-9913
▁Handlungs	-9914
▁appreciate	-9915
▁compulsory	-9916
▁manufactur	-9917
▁Reduzierung	-9918
▁exploitation	-9919
gle	-9920
ilot	-9921
odurch	-9922
▁reicht	-9923
▁gewählt	-9924
▁dependent	-9925
▁beschränkt	-9926
▁Feststellung	-9927
▁construction	-9928
1,	-9929
▁surv	-9930
▁undoub	-9931
▁Ombudsman	-9932
▁essentially	-9933
hle	-9934
ills	-9935
▁Asia	-9936
▁Once	-9937
▁judg	-9938
▁Tibet	-9939
▁trial	-9940
▁Gerade	-9941
▁breach	-9942
▁klaren	-9943
▁Marktes	-9944
▁Vietnam	-9945
▁erneuer	-9946
▁societies	-9947
▁inadequate	-9948
▁sil	-9949
▁Gese	-9950
ursday	-9951
▁2001.	-9952
▁proof	-9953
▁Donner	-9954
▁playing	-9955
▁Thursday	-9956
▁schlagen	-9957
▁industries	-9958
▁concentrate	-9959
wing	-9960
▁mur	-9961
▁sel	-9962
emost	-9963
▁Bosn	-9964
▁Buch	-9965
astern	-9966
▁Kapaz	-9967
▁dient	-9968
gelassen	-9969
getragen	-9970
▁heading	-9971
▁wodurch	-9972
▁Freedoms	-9973
▁debating	-9974
▁veröffent	-9975
▁ol	-9976
ärenz	-9977
▁Tisch	-9978
▁verwenden	-9979
▁benachteil	-9980
▁grundsätzlich	-9981
▁ausgezeichnete	-9982
ara	-9983
feind	-9984
mlich	-9985
advant	-9986
▁honest	-9987
▁follows	-9988
▁valuable	-9989
▁überlassen	-9990
▁gegenwärtige	-9991
▁konstitution	-9992
FP	-9993
bu	-9994
▁MEDA	-9995
▁elder	-9996
▁lengt	-9997
▁duties	-9998
▁quotas	-9999
▁Gesetzes	-10000
▁Prestige	-10001
▁bedauere	-10002
▁dargelegt	-10003
hme	-10004
▁Det	-10005
fachung	-10006
▁jemand	-10007
▁nation	-10008
▁stands	-10009
▁imports	-10010
▁Schreyer	-10011
▁disadvant	-10012
▁relatively	-10013
▁Binnenmarktes	-10014
/20	-10015
▁Mod	-10016
ading	-10017
luscon	-10018
staats	-10019
▁kosten	-10020
▁verank	-10021
▁foremost	-10022
▁inakzept	-10023
▁modified	-10024
üß	-10025
ikanen	-10026
▁texts	-10027
▁thres	-10028
▁Galile	-10029
▁proved	-10030
▁refers	-10031
economic	-10032
▁Steuern	-10033
▁geraten	-10034
▁kämpfen	-10035
okratischen	-10036
▁Presidents	-10037
▁garantieren	-10038
▁Gesellschaften	-10039
ada	-10040
▁95	-10041
agne	-10042
▁CAP	-10043
macht	-10044
hütung	-10045
▁Given	-10046
▁jener	-10047
▁Angola	-10048
▁Tourism	-10049
▁becomes	-10050
▁sufficiently	-10051
▁bereitgestellt	-10052
▁AIDS	-10053
▁Diam	-10054
ökonom	-10055
▁Assoc	-10056
▁aband	-10057
Staaten	-10058
▁Mugabe	-10059
▁Anträge	-10060
▁Anhörung	-10061
▁Kontinent	-10062
▁ausgeschlossen	-10063
sy	-10064
year	-10065
▁Got	-10066
▁Kat	-10067
▁Laufe	-10068
▁clean	-10069
▁pharm	-10070
flanzen	-10071
▁Bedarf	-10072
▁remove	-10073
▁carrying	-10074
▁Prozesses	-10075
▁Verletzung	-10076
▁3.	-10077
▁Früh	-10078
haltet	-10079
▁Where	-10080
einamer	-10081
▁partly	-10082
▁vorhin	-10083
▁gebeten	-10084
▁chairman	-10085
▁Berluscon	-10086
▁operating	-10087
▁spezielle	-10088
▁5,	-10089
▁inev	-10090
▁Belar	-10091
▁eight	-10092
quality	-10093
▁ethnic	-10094
▁großem	-10095
▁berecht	-10096
▁reichen	-10097
▁realistic	-10098
▁Dokumenten	-10099
schlossenheit	-10100
▁Andererseits	-10101
▁uneingeschränkt	-10102
bart	-10103
▁Opp	-10104
bauen	-10105
sport	-10106
▁1990	-10107
freund	-10108
▁Reise	-10109
nahmere	-10110
▁issued	-10111
▁elderly	-10112
▁minutes	-10113
▁referendum	-10114
▁understood	-10115
imp	-10116
▁GAP	-10117
▁Forum	-10118
vertrag	-10119
standards	-10120
▁erwähnen	-10121
▁president	-10122
▁erarbeitet	-10123
ieg	-10124
geht	-10125
gypt	-10126
▁2000.	-10127
▁absence	-10128
▁zulassen	-10129
▁Christian	-10130
ärkt	-10131
problem	-10132
▁Beschwer	-10133
mitglieder	-10134
▁saw	-10135
-2006	-10136
krieg	-10137
leitung	-10138
▁erlebt	-10139
▁Britain	-10140
▁answers	-10141
▁Wahrheit	-10142
▁entfernt	-10143
▁erlassen	-10144
▁überprüfen	-10145
▁Konsultation	-10146
osph	-10147
▁aud	-10148
▁Herz	-10149
▁doub	-10150
lausel	-10151
▁zivil	-10152
änglich	-10153
▁Belarus	-10154
▁greatly	-10155
▁accompan	-10156
▁beinhaltet	-10157
▁gesundheit	-10158
▁passengers	-10159
▁abschließend	-10160
umän	-10161
▁Dut	-10162
▁Mot	-10163
▁himself	-10164
▁welchem	-10165
▁verschär	-10166
▁Macedonia	-10167
▁geschützt	-10168
▁regionale	-10169
▁Berlusconi	-10170
▁bestehende	-10171
▁Lie	-10172
▁Ost	-10173
/1999	-10174
licit	-10175
gebaut	-10176
atische	-10177
▁beruht	-10178
▁Statute	-10179
▁geehrte	-10180
▁tragedy	-10181
▁Aspekten	-10182
▁resulting	-10183
▁functioning	-10184
see	-10185
▁Kan	-10186
▁Zul	-10187
denkt	-10188
lings	-10189
▁Gelt	-10190
resent	-10191
▁Angeb	-10192
▁seven	-10193
ifferen	-10194
▁bildet	-10195
▁expert	-10196
▁Galileo	-10197
▁Redebeit	-10198
▁mehrfach	-10199
▁intensive	-10200
▁Insbesondere	-10201
▁vul	-10202
craft	-10203
▁Wand	-10204
▁Defence	-10205
▁Betracht	-10206
▁Wachstums	-10207
▁ansprechen	-10208
▁Constitutional	-10209
ays	-10210
▁multi	-10211
▁super	-10212
füllung	-10213
▁offers	-10214
jährigen	-10215
▁advance	-10216
▁angewand	-10217
▁manchmal	-10218
▁unmöglich	-10219
▁identified	-10220
▁Allgemeinen	-10221
▁hauptsächlich	-10222
pack	-10223
gently	-10224
▁Urteil	-10225
▁approx	-10226
▁solely	-10227
▁erleben	-10228
▁Framework	-10229
▁governing	-10230
▁marketing	-10231
▁türkischen	-10232
▁undoubtedly	-10233
7(	-10234
▁Azn	-10235
▁Exp	-10236
teuer	-10237
örung	-10238
▁Gewäss	-10239
▁niedrig	-10240
ufficient	-10241
schreitenden	-10242
▁incorporated	-10243
▁Kennzeichnung	-10244
Reg	-10245
▁EIB	-10246
▁emb	-10247
▁jun	-10248
▁Cuba	-10249
▁chap	-10250
▁incomp	-10251
▁Belgium	-10252
▁Finland	-10253
▁Taliban	-10254
▁einseit	-10255
▁Begründung	-10256
▁Arbeitgeber	-10257
▁Herstellung	-10258
▁langfristig	-10259
zep	-10260
/01)	-10261
▁Vice	-10262
▁gehe	-10263
alling	-10264
▁Leute	-10265
▁green	-10266
▁verhe	-10267
sekretär	-10268
▁Führung	-10269
▁besitzt	-10270
▁Erhaltung	-10271
▁anzunehmen	-10272
▁kulturelle	-10273
▁strategies	-10274
▁furthermore	-10275
▁Ak	-10276
ovis	-10277
usal	-10278
▁züg	-10279
▁Temp	-10280
▁acht	-10281
▁Studien	-10282
▁Amerikan	-10283
▁background	-10284
▁Association	-10285
▁Modernisierung	-10286
adow	-10287
lack	-10288
▁scr	-10289
▁SMEs	-10290
▁went	-10291
räumen	-10292
▁Boden	-10293
fristig	-10294
▁arrest	-10295
▁urgently	-10296
▁unterschiedlich	-10297
strä	-10298
bleme	-10299
▁fuel	-10300
schläge	-10301
▁Preise	-10302
▁ergänz	-10303
schaffen	-10304
▁zweiter	-10305
▁getragen	-10306
▁Garantien	-10307
▁Teilnahme	-10308
▁Ausnahmere	-10309
▁Einstellung	-10310
▁Fuß	-10311
▁Süden	-10312
▁count	-10313
▁vulner	-10314
▁categor	-10315
▁species	-10316
▁irischen	-10317
▁Ausgleich	-10318
beziehungen	-10319
▁wirklichen	-10320
▁Terroristen	-10321
▁determination	-10322
IV	-10323
ane	-10324
mod	-10325
▁Sä	-10326
▁Mac	-10327
▁Tai	-10328
läuft	-10329
person	-10330
▁einzur	-10331
▁Indones	-10332
▁abstain	-10333
▁Budgetary	-10334
▁Einschrän	-10335
▁completed	-10336
tag	-10337
iety	-10338
ählt	-10339
ätze	-10340
▁drast	-10341
▁Abfall	-10342
▁Labour	-10343
▁offene	-10344
▁actively	-10345
▁explicit	-10346
▁stressed	-10347
dez	-10348
▁Eur	-10349
▁Kurz	-10350
▁korr	-10351
▁phen	-10352
▁sets	-10353
▁stim	-10354
ukture	-10355
▁Netze	-10356
▁Washing	-10357
▁Western	-10358
▁Beiträge	-10359
▁aircraft	-10360
▁effektiv	-10361
▁preparation	-10362
▁unanimously	-10363
▁verbundenen	-10364
verhandlungen	-10365
▁(200	-10366
▁gearbeitet	-10367
▁significance	-10368
▁Bereitstellung	-10369
▁wirtschaftlich	-10370
urb	-10371
▁Lob	-10372
abled	-10373
irable	-10374
▁2004.	-10375
▁Verab	-10376
▁Wichtig	-10377
▁imagine	-10378
▁railway	-10379
▁schafft	-10380
isierungs	-10381
▁materials	-10382
/02	-10383
ams	-10384
▁Vize	-10385
▁propert	-10386
▁deserves	-10387
▁hingegen	-10388
▁phenomen	-10389
▁erleichtern	-10390
▁derog	-10391
▁estim	-10392
▁fruit	-10393
▁genie	-10394
▁zahlen	-10395
▁Rechten	-10396
▁Stimmen	-10397
▁budgets	-10398
▁exports	-10399
▁attempts	-10400
▁entweder	-10401
▁railways	-10402
▁Lateinamer	-10403
▁bekräftigt	-10404
▁eindeutige	-10405
▁menschliche	-10406
Kon	-10407
achter	-10408
commun	-10409
▁built	-10410
▁reich	-10411
▁privat	-10412
gänglich	-10413
▁offered	-10414
▁weitaus	-10415
▁Klarheit	-10416
▁schließe	-10417
▁irgendein	-10418
▁auseinander	-10419
züge	-10420
▁Nap	-10421
▁Rub	-10422
▁Vis	-10423
▁news	-10424
▁Aznar	-10425
▁Monat	-10426
▁admit	-10427
▁Geneva	-10428
▁Kriegs	-10429
▁delays	-10430
▁abgesch	-10431
▁Betriebs	-10432
▁genügend	-10433
▁Donnerstag	-10434
▁negotiation	-10435
ixed	-10436
acher	-10437
▁hopes	-10438
▁Studie	-10439
▁mögliche	-10440
▁ehemaligen	-10441
▁violations	-10442
▁Cooperation	-10443
▁Verbreitung	-10444
▁entscheidend	-10445
WG	-10446
lief	-10447
▁audi	-10448
▁Stadt	-10449
mäßigen	-10450
▁besorgt	-10451
▁gefasst	-10452
▁Existenz	-10453
▁zentrale	-10454
▁technological	-10455
ole	-10456
▁Ra	-10457
▁21.	-10458
▁Swo	-10459
▁Lond	-10460
▁pain	-10461
▁angep	-10462
▁Futter	-10463
▁Swobod	-10464
▁Umgang	-10465
▁advert	-10466
▁extreme	-10467
▁erteilen	-10468
▁verboten	-10469
▁Luxembourg	-10470
▁beabsichtigt	-10471
▁Arg	-10472
▁Gut	-10473
osing	-10474
owski	-10475
▁Monti	-10476
▁exter	-10477
▁Ausweit	-10478
▁gewinnen	-10479
▁einzuführen	-10480
▁explanation	-10481
▁vorzunehmen	-10482
60	-10483
des	-10484
cker	-10485
derten	-10486
▁regrett	-10487
▁schemes	-10488
▁schritt	-10489
▁Methoden	-10490
▁airlines	-10491
▁audiovis	-10492
▁register	-10493
▁subjects	-10494
sprogramme	-10495
▁confident	-10496
▁spanische	-10497
▁Beratungen	-10498
▁schwierige	-10499
▁Dav	-10500
deckt	-10501
schul	-10502
ängst	-10503
▁laut	-10504
wahlen	-10505
▁united	-10506
schutzes	-10507
▁Amerika	-10508
▁Swoboda	-10509
▁Kohärenz	-10510
▁barriers	-10511
▁Ansichten	-10512
▁hinzufügen	-10513
▁Volkspartei	-10514
▁sovereignty	-10515
hlt	-10516
sph	-10517
rate	-10518
▁Over	-10519
arzemb	-10520
▁Dutch	-10521
▁heavy	-10522
ouverän	-10523
▁kommer	-10524
▁sozialer	-10525
▁Konflikte	-10526
▁einstimmig	-10527
▁Ausgrenzung	-10528
▁Hindernisse	-10529
▁Vizepräsident	-10530
14	-10531
II	-10532
▁core	-10533
machen	-10534
▁Ausbe	-10535
▁deals	-10536
ruption	-10537
▁London	-10538
▁Meeres	-10539
▁Jarzemb	-10540
▁Liikanen	-10541
▁declared	-10542
▁angewendet	-10543
▁anzuwenden	-10544
▁transitional	-10545
▁Vereinfachung	-10546
▁restructuring	-10547
änen	-10548
▁Sum	-10549
enness	-10550
▁Chair	-10551
▁Glückw	-10552
▁exceed	-10553
▁religi	-10554
▁surely	-10555
▁Eurojust	-10556
▁behaupten	-10557
▁emphasised	-10558
zusammenarbeit	-10559
TA	-10560
▁hyp	-10561
▁proc	-10562
opoulou	-10563
▁racism	-10564
▁ethical	-10565
▁release	-10566
rechtlichen	-10567
▁Washington	-10568
▁überwinden	-10569
UE	-10570
▁5.	-10571
▁upd	-10572
▁wann	-10573
▁ongoing	-10574
▁Ausweitung	-10575
▁Sozialpart	-10576
▁outstanding	-10577
reds	-10578
▁ECB	-10579
ughter	-10580
▁Tieren	-10581
▁evident	-10582
▁abhängig	-10583
▁verlassen	-10584
▁extraordin	-10585
iki	-10586
ses	-10587
worte	-10588
wachsen	-10589
▁taxpay	-10590
▁autonom	-10591
▁journal	-10592
▁collabor	-10593
▁speeches	-10594
▁konsequent	-10595
▁Jarzembowski	-10596
elbe	-10597
uens	-10598
▁Kann	-10599
▁Barón	-10600
▁guter	-10601
▁Faktoren	-10602
▁changing	-10603
▁Ratifizierung	-10604
ros	-10605
oßen	-10606
▁lag	-10607
▁süd	-10608
normen	-10609
▁Minutes	-10610
▁debated	-10611
▁Offenheit	-10612
▁formuliert	-10613
▁vorstellen	-10614
setz	-10615
▁Food	-10616
fällig	-10617
▁Zeiten	-10618
▁acting	-10619
▁Ungleich	-10620
▁Autonomie	-10621
▁Erreichung	-10622
▁Schwerpunkt	-10623
▁rechtzeitig	-10624
▁Unionsbürger	-10625
rt	-10626
án	-10627
▁Bu	-10628
▁–,	-10629
▁cop	-10630
reift	-10631
▁drug	-10632
eitern	-10633
▁Statut	-10634
▁breite	-10635
▁echten	-10636
▁Gericht	-10637
▁übersch	-10638
▁Betriebe	-10639
▁terrorists	-10640
▁Generaldire	-10641
aster	-10642
isses	-10643
▁ther	-10644
▁trib	-10645
▁Joint	-10646
▁Territor	-10647
▁Vorsorge	-10648
▁beurteil	-10649
▁undertakings	-10650
▁gegebenenfalls	-10651
VC	-10652
▁4.	-10653
meld	-10654
▁Demon	-10655
▁remaining	-10656
▁historischen	-10657
▁preparations	-10658
van	-10659
uzzo	-10660
▁Auge	-10661
▁Prote	-10662
▁günst	-10663
▁zählen	-10664
▁justify	-10665
zustimmen	-10666
▁Palestinians	-10667
▁Parliamentary	-10668
AS	-10669
opf	-10670
5-05	-10671
▁attra	-10672
▁Madrid	-10673
▁objekt	-10674
▁Akteure	-10675
▁granting	-10676
▁Bedrohung	-10677
▁considerably	-10678
▁Strafgerichts	-10679
▁durchzusetzen	-10680
▁unterzeichnet	-10681
emin	-10682
/01):	-10683
▁Zuge	-10684
▁Marok	-10685
▁alarm	-10686
▁poten	-10687
ürokrat	-10688
President	-10689
▁suffered	-10690
▁entscheidender	-10691
utor	-10692
▁lic	-10693
▁chann	-10694
orgungs	-10695
▁Gewicht	-10696
▁Nigeria	-10697
▁appoint	-10698
▁profits	-10699
▁familiar	-10700
▁producing	-10701
▁prosperity	-10702
▁Alternative	-10703
▁Mechanismen	-10704
▁importantly	-10705
▁europäisches	-10706
▁entscheidenden	-10707
atuzzo	-10708
▁consc	-10709
▁Gefühl	-10710
▁Stunden	-10711
▁ziemlich	-10712
▁extending	-10713
▁Legislativ	-10714
▁besonderer	-10715
▁verabschieden	-10716
asts	-10717
elte	-10718
▁Glück	-10719
▁compon	-10720
▁enlarged	-10721
▁launched	-10722
▁Argumente	-10723
ún	-10724
▁34	-10725
▁Ster	-10726
▁pict	-10727
(2000)	-10728
▁Georg	-10729
▁Pfeil	-10730
▁geeignet	-10731
▁Erfüllung	-10732
▁Vorredner	-10733
▁employers	-10734
▁Arbeitnehmern	-10735
EWG	-10736
iben	-10737
inea	-10738
▁HIV	-10739
iteten	-10740
stream	-10741
▁Dauer	-10742
▁Deleg	-10743
▁Nacht	-10744
▁endors	-10745
▁straight	-10746
▁Emissions	-10747
▁Wallström	-10748
▁32	-10749
ades	-10750
▁maß	-10751
▁Arme	-10752
modell	-10753
▁quote	-10754
▁sorry	-10755
atorium	-10756
unction	-10757
▁courts	-10758
▁höchste	-10759
▁diplomat	-10760
▁identity	-10761
▁openness	-10762
▁vertritt	-10763
▁Betroffen	-10764
▁auswärtige	-10765
▁Verabschied	-10766
▁guaranteeing	-10767
IF	-10768
rant	-10769
stadt	-10770
ftware	-10771
leitet	-10772
olonial	-10773
▁Betrag	-10774
▁illegale	-10775
▁surround	-10776
▁Verhandlung	-10777
▁complicated	-10778
▁politisches	-10779
▁Verabschiedung	-10780
▁Sup	-10781
▁eye	-10782
▁tie	-10783
▁Malt	-10784
▁stip	-10785
sprech	-10786
▁freuen	-10787
▁keinem	-10788
▁Zugangs	-10789
▁mussten	-10790
▁umsetzen	-10791
▁intervene	-10792
▁precaution	-10793
▁previously	-10794
▁elektronischen	-10795
ße	-10796
▁GUE	-10797
icate	-10798
▁ziel	-10799
▁Schluß	-10800
▁Kapitel	-10801
▁Souverän	-10802
▁Investitions	-10803
erne	-10804
build	-10805
▁beob	-10806
▁Belgien	-10807
▁Eastern	-10808
▁Mitwirkung	-10809
▁presenting	-10810
▁wesentlicher	-10811
illa	-10812
hängt	-10813
scale	-10814
apital	-10815
▁weist	-10816
comings	-10817
▁feeling	-10818
▁langsam	-10819
▁gewähren	-10820
▁renewable	-10821
▁legitimacy	-10822
▁bedauerlich	-10823
wind	-10824
▁2004,	-10825
ication	-10826
▁Bedürfnisse	-10827
TE	-10828
glück	-10829
oniki	-10830
▁Cancún	-10831
▁recall	-10832
fertigen	-10833
▁Kontakt	-10834
▁ausüben	-10835
▁dynamic	-10836
▁Ausnahmen	-10837
▁Gestatten	-10838
▁denjenigen	-10839
▁Welthandels	-10840
▁willingness	-10841
▁unterbreiten	-10842
▁investigation	-10843
ops	-10844
parte	-10845
osselt	-10846
zusehen	-10847
ausschuß	-10848
▁afrikan	-10849
▁medical	-10850
▁Vielzahl	-10851
▁Ausbeutung	-10852
▁Einschätzung	-10853
isory	-10854
▁Vern	-10855
▁flag	-10856
rängen	-10857
▁Absch	-10858
▁Frist	-10859
▁werte	-10860
▁credit	-10861
▁easily	-10862
▁gemein	-10863
▁jungen	-10864
▁Morocco	-10865
▁Nachhalt	-10866
▁Schulden	-10867
▁internen	-10868
▁respects	-10869
▁Steuerzahl	-10870
▁Umstruktur	-10871
▁Außenhandel	-10872
VP	-10873
emm	-10874
▁Sea	-10875
arten	-10876
essal	-10877
▁Cong	-10878
▁Cres	-10879
▁getr	-10880
▁Bitte	-10881
▁forts	-10882
▁zuvor	-10883
Bericht	-10884
Prozess	-10885
▁Action	-10886
ängerung	-10887
▁Posselt	-10888
▁genauso	-10889
▁vorliegt	-10890
▁aktuellen	-10891
▁Situationen	-10892
▁befürwortet	-10893
ored	-10894
▁Anre	-10895
▁Letz	-10896
▁nehme	-10897
▁neutr	-10898
▁sched	-10899
▁topic	-10900
▁During	-10901
▁Minuten	-10902
leistungs	-10903
▁horizont	-10904
▁property	-10905
gestellten	-10906
▁betreiben	-10907
▁migration	-10908
▁shortcomings	-10909
▁Gerechtigkeit	-10910
osp	-10911
ürzt	-10912
▁inf	-10913
▁Prem	-10914
▁froh	-10915
▁size	-10916
messen	-10917
▁rigor	-10918
ications	-10919
▁affects	-10920
initiative	-10921
▁Herkunfts	-10922
▁enthaltenen	-10923
▁calc	-10924
▁tort	-10925
▁enhan	-10926
▁obser	-10927
▁spend	-10928
▁Grenze	-10929
spflicht	-10930
vergence	-10931
▁Alkohol	-10932
▁intentions	-10933
gut	-10934
▁koh	-10935
▁insp	-10936
▁warn	-10937
▁Pläne	-10938
▁höhere	-10939
▁Einheit	-10940
▁besitzen	-10941
antwortung	-10942
▁strukture	-10943
▁verändert	-10944
/03	-10945
fers	-10946
▁Paket	-10947
▁Teile	-10948
▁mount	-10949
handeln	-10950
▁wenden	-10951
▁Thessal	-10952
▁komplex	-10953
▁prospects	-10954
▁finanzieren	-10955
▁funktionieren	-10956
pla	-10957
ähe	-10958
▁33	-10959
mögen	-10960
▁surve	-10961
▁worst	-10962
bleiben	-10963
ausgaben	-10964
regionen	-10965
▁Clearly	-10966
▁Senkung	-10967
▁Kohäsion	-10968
▁erwiesen	-10969
▁jegliche	-10970
▁basically	-10971
▁Gleichwohl	-10972
▁controvers	-10973
▁facilities	-10974
▁Drittstaaten	-10975
coun	-10976
hole	-10977
▁Cze	-10978
▁ausz	-10979
gebiete	-10980
▁Höchst	-10981
▁Sicher	-10982
▁weight	-10983
▁Legitim	-10984
▁Erzeuger	-10985
▁Krankheit	-10986
▁coherence	-10987
▁obligator	-10988
▁vornehmen	-10989
bestimmungen	-10990
7,	-10991
ering	-10992
inken	-10993
▁Korr	-10994
▁reve	-10995
ieller	-10996
▁Sommer	-10997
▁fifteen	-10998
▁schools	-10999
▁konfront	-11000
▁abgegeben	-11001
▁festlegen	-11002
▁complement	-11003
▁eingeräumt	-11004
▁verringern	-11005
▁Perspektive	-11006
▁ausgerichtet	-11007
.,	-11008
sych	-11009
betrie	-11010
▁Morgen	-11011
▁langen	-11012
▁Aufhebung	-11013
▁prisoners	-11014
▁verzeichnen	-11015
▁Verteidigungs	-11016
rot	-11017
urt	-11018
▁hy	-11019
iegen	-11020
▁Pers	-11021
▁Wird	-11022
▁stay	-11023
▁unab	-11024
▁plants	-11025
betracht	-11026
▁mistake	-11027
▁Kulturen	-11028
▁gelingen	-11029
▁übermitteln	-11030
▁insufficient	-11031
wth	-11032
▁0.	-11033
▁Haar	-11034
▁milk	-11035
artige	-11036
ziplin	-11037
▁motor	-11038
▁Crespo	-11039
▁Growth	-11040
▁helped	-11041
▁Represent	-11042
▁kontrollieren	-11043
▁0,	-11044
▁Mrd	-11045
▁She	-11046
▁gap	-11047
stieg	-11048
▁Both	-11049
▁Gebä	-11050
fangen	-11051
läufig	-11052
▁black	-11053
henburg	-11054
▁sieben	-11055
▁harmful	-11056
▁Americans	-11057
▁Telekommun	-11058
▁belgischen	-11059
▁Dafürhalten	-11060
▁Technologie	-11061
▁Durchsetzung	-11062
▁Jugendlichen	-11063
▁Niederlanden	-11064
▁Thessaloniki	-11065
weite	-11066
▁Cent	-11067
▁Haup	-11068
▁zone	-11069
▁Ideen	-11070
▁fewer	-11071
▁Aussage	-11072
▁deficit	-11073
▁powerful	-11074
▁addressing	-11075
▁bewältigen	-11076
▁erarbeiten	-11077
▁­	-11078
hner	-11079
umping	-11080
▁Hilfs	-11081
▁couple	-11082
▁musste	-11083
▁summer	-11084
▁transl	-11085
▁Fleisch	-11086
▁intelle	-11087
▁removed	-11088
Christian	-11089
▁students	-11090
▁Äußerungen	-11091
ening	-11092
▁Kuba	-11093
▁spür	-11094
▁tonn	-11095
▁Gelder	-11096
▁Zustand	-11097
▁Gothenburg	-11098
▁diplomatic	-11099
▁Versammlung	-11100
▁reservations	-11101
INI	-11102
▁Schl	-11103
▁oppose	-11104
▁Harbour	-11105
▁medizin	-11106
▁whereby	-11107
▁wording	-11108
▁Director	-11109
▁identify	-11110
▁Präsidium	-11111
▁zunehmend	-11112
▁gerechtfertigt	-11113
jud	-11114
▁legt	-11115
attung	-11116
vented	-11117
wertet	-11118
national	-11119
▁auswirken	-11120
▁britische	-11121
▁correctly	-11122
▁erläutern	-11123
▁residence	-11124
▁Vorstellung	-11125
▁possibilities	-11126
▁diesbezüglichen	-11127
11	-11128
ader	-11129
gewöhn	-11130
▁faith	-11131
▁Dingen	-11132
▁Mangel	-11133
▁anstre	-11134
▁chosen	-11135
▁Fatuzzo	-11136
▁Gipfels	-11137
▁mangeln	-11138
▁Austrian	-11139
▁Schutzes	-11140
▁Schreiben	-11141
▁Anbetracht	-11142
▁sorgfältig	-11143
▁sustainability	-11144
hrt	-11145
istet	-11146
plant	-11147
▁cars	-11148
lösung	-11149
▁Gesam	-11150
▁opened	-11151
▁Fragest	-11152
▁someone	-11153
▁Garantie	-11154
▁excluded	-11155
spolitiken	-11156
▁Nachmittag	-11157
▁Tätigkeiten	-11158
▁applications	-11159
EL	-11160
▁38	-11161
wohner	-11162
▁award	-11163
▁Before	-11164
bestände	-11165
▁percent	-11166
▁replace	-11167
▁Hersteller	-11168
▁Stabilitäts	-11169
▁profitieren	-11170
▁stattfindet	-11171
dienstleistungen	-11172
ürze	-11173
ieden	-11174
▁crops	-11175
weisung	-11176
▁version	-11177
▁Staatsan	-11178
▁schneller	-11179
▁vulnerable	-11180
▁Ministerrat	-11181
▁citizenship	-11182
".	-11183
EEC	-11184
ufe	-11185
laut	-11186
ariat	-11187
▁beef	-11188
▁infr	-11189
▁Abbau	-11190
▁Straße	-11191
▁numbers	-11192
▁Democrat	-11193
▁Programmen	-11194
▁Abstimmungen	-11195
%,	-11196
NGL	-11197
ibr	-11198
▁48	-11199
▁Dub	-11200
▁forum	-11201
▁clarity	-11202
▁drivers	-11203
▁radical	-11204
▁Einwanderer	-11205
▁strengthened	-11206
9,	-11207
AN	-11208
Med	-11209
▁Ol	-11210
gelöst	-11211
▁Under	-11212
▁hängt	-11213
▁Gefäng	-11214
▁Taiwan	-11215
▁murder	-11216
▁Without	-11217
▁erinnere	-11218
▁verletzt	-11219
▁condemned	-11220
▁Opposition	-11221
▁indicators	-11222
▁staatliche	-11223
▁interpretation	-11224
▁sichergestellt	-11225
aßt	-11226
ikas	-11227
▁forg	-11228
▁armed	-11229
gerufen	-11230
schafts	-11231
▁Marokko	-11232
▁anwenden	-11233
▁angesehen	-11234
▁erwähnten	-11235
▁inflation	-11236
▁supervision	-11237
▁neighbouring	-11238
daten	-11239
iscal	-11240
ativer	-11241
▁armen	-11242
ubringen	-11243
▁gestärkt	-11244
▁gebilligt	-11245
▁verstärkte	-11246
▁Assoziierungs	-11247
ifth	-11248
▁Zuf	-11249
derte	-11250
laden	-11251
wurfs	-11252
Europe	-11253
ahlung	-11254
▁unnöt	-11255
▁Gewerk	-11256
usstsein	-11257
▁Fähigkeit	-11258
▁applicant	-11259
▁beantworten	-11260
▁Ank	-11261
▁Menge	-11262
▁beibe	-11263
country	-11264
träglich	-11265
▁ärmsten	-11266
▁hundreds	-11267
angehörigen	-11268
▁vollständige	-11269
An	-11270
krit	-11271
▁ded	-11272
hrter	-11273
mäßige	-11274
▁bedro	-11275
▁zumal	-11276
essions	-11277
▁beruhen	-11278
▁erfreut	-11279
▁welcomes	-11280
▁Funktionieren	-11281
▁rechtfertigen	-11282
zerr	-11283
▁Armen	-11284
▁chain	-11285
▁reass	-11286
▁Abhäng	-11287
▁geleis	-11288
▁zuläss	-11289
▁Premier	-11290
wesenheit	-11291
▁terrible	-11292
▁Sicherung	-11293
▁Nonetheless	-11294
▁vorbereitet	-11295
like	-11296
▁pred	-11297
annehm	-11298
lements	-11299
▁Sharon	-11300
▁warmly	-11301
▁starken	-11302
▁bereitet	-11303
▁obtained	-11304
▁zustande	-11305
▁dictators	-11306
▁advantages	-11307
▁unilateral	-11308
▁unterbrochen	-11309
▁Eth	-11310
▁Tex	-11311
zicht	-11312
▁Erinn	-11313
kontroll	-11314
▁conducted	-11315
▁contradict	-11316
▁historical	-11317
▁Fragestunde	-11318
▁unnecessary	-11319
▁veröffentlicht	-11320
▁Gas	-11321
▁früh	-11322
▁Refer	-11323
▁immen	-11324
▁mitge	-11325
▁Mängel	-11326
▁gekenn	-11327
▁postal	-11328
▁players	-11329
▁rapidly	-11330
▁pleasure	-11331
▁promised	-11332
▁ratified	-11333
communications	-11334
▁Finanzierungs	-11335
▁manufacturers	-11336
▁Rü	-11337
fäll	-11338
▁cells	-11339
▁Rubrik	-11340
▁Wähler	-11341
völkerung	-11342
▁Luxemburg	-11343
▁definiert	-11344
▁penalties	-11345
▁processing	-11346
▁konfrontiert	-11347
▁representation	-11348
45	-11349
iment	-11350
▁Umwel	-11351
▁commend	-11352
▁determine	-11353
▁pensioners	-11354
▁Anmerkungen	-11355
▁necessarily	-11356
verschmutzung	-11357
▁portugiesischen	-11358
artet	-11359
reise	-11360
▁läuft	-11361
▁inhalt	-11362
▁abandon	-11363
▁erwähnte	-11364
▁organise	-11365
▁neighbours	-11366
▁Ergebnissen	-11367
ibi	-11368
adem	-11369
▁zer	-11370
▁army	-11371
▁push	-11372
▁aside	-11373
▁persu	-11374
▁geplan	-11375
▁sobald	-11376
gefunden	-11377
▁erlaubt	-11378
▁privile	-11379
▁Agenturen	-11380
▁gefährdet	-11381
▁ausführlich	-11382
▁Verlängerung	-11383
▁gegenseitigen	-11384
▁55	-11385
klar	-11386
▁Slo	-11387
uding	-11388
▁Medik	-11389
▁Taten	-11390
▁arise	-11391
▁schäd	-11392
▁Freund	-11393
▁deeply	-11394
ccession	-11395
▁Vorwand	-11396
▁hearing	-11397
▁registr	-11398
▁endgültigen	-11399
▁spezifische	-11400
▁Palästinenser	-11401
▁6,	-11402
▁400	-11403
▁susp	-11404
igence	-11405
▁Rural	-11406
▁piece	-11407
ziellen	-11408
▁Dublin	-11409
▁Schmid	-11410
▁centres	-11411
▁umfasst	-11412
▁Criminal	-11413
▁drafting	-11414
▁reflected	-11415
▁schwedische	-11416
▁Bau	-11417
itage	-11418
▁Left	-11419
▁glück	-11420
ressive	-11421
▁produz	-11422
▁soweit	-11423
▁Material	-11424
verfahrens	-11425
▁verursacht	-11426
▁bekanntlich	-11427
▁israelischen	-11428
gal	-11429
▁esc	-11430
kehren	-11431
nisses	-11432
schech	-11433
▁derer	-11434
▁conven	-11435
▁ambition	-11436
▁indirect	-11437
▁demanding	-11438
▁precautionary	-11439
gas	-11440
fted	-11441
alter	-11442
▁boost	-11443
igkeits	-11444
▁detaill	-11445
▁Erwägung	-11446
▁dänischen	-11447
▁widerspie	-11448
▁Innovation	-11449
▁bekräftigen	-11450
mord	-11451
▁Angst	-11452
▁korrig	-11453
▁Haarder	-11454
▁bestand	-11455
▁airports	-11456
▁endgültige	-11457
▁zugestimmt	-11458
▁Grundsätzen	-11459
▁coordinated	-11460
put	-11461
ossier	-11462
▁Quoten	-11463
▁lernen	-11464
▁stable	-11465
▁erteilt	-11466
▁Finnland	-11467
▁zugelassen	-11468
▁beibehalten	-11469
▁Gemeinschaften	-11470
husi	-11471
▁Chem	-11472
▁bomb	-11473
ierend	-11474
isziplin	-11475
▁präsent	-11476
▁laufenden	-11477
berichterst	-11478
▁applicable	-11479
▁restricted	-11480
▁Standpunkte	-11481
▁genetically	-11482
▁Ratsvorsitzes	-11483
mä	-11484
▁75	-11485
▁Ori	-11486
▁Kürz	-11487
▁Tragö	-11488
▁steuer	-11489
spartner	-11490
▁article	-11491
▁drafted	-11492
▁Alliance	-11493
▁Gestaltung	-11494
▁vereinbart	-11495
▁einzubeziehen	-11496
▁7,	-11497
arding	-11498
▁hence	-11499
▁trotzdem	-11500
▁Zahlungen	-11501
▁verehrten	-11502
▁gefährlich	-11503
▁leadership	-11504
▁vorhandenen	-11505
▁Du	-11506
ifies	-11507
▁Czech	-11508
▁Great	-11509
▁Wissens	-11510
▁ausgest	-11511
▁einzelne	-11512
▁eintreten	-11513
▁Genehmigung	-11514
▁beantwortet	-11515
▁ratification	-11516
▁Jeder	-11517
▁laufen	-11518
▁utmost	-11519
▁testing	-11520
beihilfen	-11521
▁schweren	-11522
▁violation	-11523
▁Augenblick	-11524
pet	-11525
▁44	-11526
bett	-11527
▁Syr	-11528
▁syn	-11529
▁Ehre	-11530
▁Konk	-11531
▁Like	-11532
▁Rumän	-11533
▁banks	-11534
▁conce	-11535
▁kinds	-11536
▁oftmals	-11537
▁unanimous	-11538
▁Flüchtlings	-11539
▁Hinsichtlich	-11540
▁Souveränität	-11541
▁unzureichend	-11542
és	-11543
ahrt	-11544
lymp	-11545
ctual	-11546
icken	-11547
ienten	-11548
▁fortz	-11549
▁motiv	-11550
▁south	-11551
▁outset	-11552
▁direkte	-11553
▁largest	-11554
▁quantit	-11555
austausch	-11556
▁Rückkehr	-11557
▁bedauern	-11558
▁disabled	-11559
▁anerkennen	-11560
▁ecological	-11561
▁repeatedly	-11562
▁beglückwünsche	-11563
ua	-11564
akes	-11565
▁spl	-11566
nimmt	-11567
reibt	-11568
suche	-11569
▁Four	-11570
▁Konz	-11571
▁vast	-11572
▁geprä	-11573
▁psych	-11574
verläss	-11575
▁plural	-11576
▁Organis	-11577
▁entered	-11578
▁höheren	-11579
▁succeeded	-11580
schreitende	-11581
▁Strategien	-11582
▁Vertretung	-11583
▁convergence	-11584
▁italienische	-11585
▁Premierminister	-11586
denk	-11587
▁Subst	-11588
▁punish	-11589
▁stance	-11590
▁distinction	-11591
pidem	-11592
▁Kind	-11593
▁Urspr	-11594
▁Orient	-11595
▁shares	-11596
▁symbol	-11597
▁anticip	-11598
▁deserve	-11599
▁enthusi	-11600
▁whereas	-11601
▁unanimity	-11602
▁Wirksamkeit	-11603
lla	-11604
pap	-11605
üge	-11606
▁42	-11607
wohn	-11608
while	-11609
▁sach	-11610
zeiten	-11611
▁Kürze	-11612
▁Office	-11613
▁ergibt	-11614
▁threats	-11615
forschung	-11616
▁deutschen	-11617
▁geeignete	-11618
▁Bestimmung	-11619
▁kontrolliert	-11620
Mitgliedstaaten	-11621
ulted	-11622
▁Hohe	-11623
▁Infl	-11624
Programm	-11625
gebieten	-11626
▁Experten	-11627
▁certainty	-11628
▁Flüchtling	-11629
40	-11630
anst	-11631
lesen	-11632
▁Raums	-11633
▁shift	-11634
▁enorme	-11635
▁hinweg	-11636
▁relate	-11637
▁depends	-11638
▁Kalining	-11639
▁Initiativ	-11640
bas	-11641
har	-11642
het	-11643
▁ASE	-11644
▁fla	-11645
unger	-11646
zellen	-11647
gelegte	-11648
ältigung	-11649
▁Anlagen	-11650
▁erhoben	-11651
▁begrenzt	-11652
▁withdraw	-11653
▁Kompetenz	-11654
▁abgesehen	-11655
▁suspended	-11656
▁contributed	-11657
▁gemeinsamer	-11658
▁Binnenmarkts	-11659
▁legislativen	-11660
cer	-11661
▁EVP	-11662
▁cyc	-11663
▁kur	-11664
elled	-11665
rückt	-11666
▁prev	-11667
▁Bureau	-11668
▁driving	-11669
▁aviation	-11670
▁erörtert	-11671
▁passiert	-11672
produktion	-11673
▁Übernahme	-11674
▁beseitigen	-11675
▁garantiert	-11676
▁suggestion	-11677
▁Nachhaltigkeit	-11678
▁Übereinkommens	-11679
aire	-11680
deck	-11681
lern	-11682
▁liber	-11683
▁fairly	-11684
▁strength	-11685
▁worrying	-11686
▁explained	-11687
▁favourable	-11688
▁demokratisch	-11689
▁significantly	-11690
▁Vorgehensweise	-11691
ALE	-11692
lüssen	-11693
▁Evalu	-11694
▁incon	-11695
▁hardly	-11696
▁owners	-11697
▁paying	-11698
▁sagten	-11699
▁vertre	-11700
▁smaller	-11701
▁verschw	-11702
abkommens	-11703
▁Frühjahr	-11704
▁Qualitäts	-11705
▁mündlichen	-11706
▁rechtliche	-11707
▁observation	-11708
Mediterranean	-11709
▁geographical	-11710
▁satisfaction	-11711
▁schwerwiegen	-11712
break	-11713
stock	-11714
übung	-11715
▁leiten	-11716
▁Kranken	-11717
▁warrant	-11718
▁vorgehen	-11719
▁angewandt	-11720
▁surprised	-11721
▁fortsetzen	-11722
▁vorschlägt	-11723
verletzungen	-11724
▁advertising	-11725
▁inakzeptabel	-11726
tran	-11727
bargo	-11728
frika	-11729
▁Zwar	-11730
ranten	-11731
tokoll	-11732
▁geist	-11733
▁Romania	-11734
▁bürokrat	-11735
▁examined	-11736
▁übereinst	-11737
▁expressing	-11738
▁settlement	-11739
otti	-11740
klärt	-11741
▁Mult	-11742
dition	-11743
▁Förder	-11744
▁tonnes	-11745
▁Corbett	-11746
▁statute	-11747
▁Amt	-11748
deten	-11749
ergeb	-11750
▁Atom	-11751
▁Geber	-11752
▁proud	-11753
▁track	-11754
▁Follow	-11755
▁regeln	-11756
ikatoren	-11757
▁Diamant	-11758
▁heritage	-11759
▁erscheinen	-11760
▁strategischen	-11761
äbe	-11762
ophob	-11763
▁tank	-11764
fuhren	-11765
wasser	-11766
amerikan	-11767
▁Verkauf	-11768
▁increases	-11769
▁undertake	-11770
▁worldwide	-11771
▁Verteilung	-11772
▁disappoint	-11773
▁zusätzlich	-11774
▁undertaking	-11775
▁verantwortungs	-11776
rebt	-11777
opard	-11778
▁brut	-11779
▁quar	-11780
▁würd	-11781
bedarf	-11782
▁Malta	-11783
▁genehm	-11784
▁sought	-11785
▁deswegen	-11786
▁gestattet	-11787
▁verändern	-11788
▁persönlichen	-11789
EA	-11790
nez	-11791
▁paar	-11792
▁stam	-11793
▁roads	-11794
zusagen	-11795
▁Termin	-11796
▁lieber	-11797
▁Statist	-11798
▁picture	-11799
▁suitable	-11800
▁Austausch	-11801
▁regulated	-11802
erei	-11803
ragm	-11804
senz	-11805
▁Buiten	-11806
▁ökonom	-11807
istischer	-11808
▁aufricht	-11809
▁distingu	-11810
▁observed	-11811
▁treaties	-11812
▁vorzusch	-11813
Richtlinie	-11814
ilisierung	-11815
▁erheblichen	-11816
▁erforderliche	-11817
resh	-11818
asmus	-11819
eding	-11820
▁tests	-11821
gewogen	-11822
▁doubts	-11823
▁retire	-11824
▁widely	-11825
▁focused	-11826
▁Zahlungs	-11827
▁division	-11828
▁negativen	-11829
wirtschaftung	-11830
▁Verordnungen	-11831
▁associations	-11832
▁consequently	-11833
▁unterscheiden	-11834
oni	-11835
▁Immun	-11836
▁mögen	-11837
▁penal	-11838
▁Colomb	-11839
▁Dollar	-11840
▁charges	-11841
▁jeopard	-11842
bewertung	-11843
▁enabling	-11844
▁bisherigen	-11845
▁beizutragen	-11846
▁clarification	-11847
änge	-11848
▁Cox	-11849
▁door	-11850
▁moved	-11851
ministr	-11852
otenzial	-11853
▁Chairman	-11854
▁Ausführung	-11855
▁Jahrhunder	-11856
▁corruption	-11857
▁delegations	-11858
▁Je	-11859
ahme	-11860
ibly	-11861
itze	-11862
▁Abs	-11863
▁enh	-11864
ergie	-11865
▁Bill	-11866
▁Time	-11867
▁alte	-11868
▁Ergänz	-11869
beschäft	-11870
▁English	-11871
▁freight	-11872
▁Israelis	-11873
▁bewerten	-11874
▁reaching	-11875
▁constitutes	-11876
▁stattgefunden	-11877
▁Ratspräsidenten	-11878
dep	-11879
ußt	-11880
osis	-11881
▁20.	-11882
reter	-11883
▁Zoll	-11884
▁horr	-11885
▁sake	-11886
inking	-11887
▁strug	-11888
▁Papier	-11889
▁engage	-11890
▁wahren	-11891
▁periods	-11892
▁Befürcht	-11893
▁Bewerber	-11894
ländischen	-11895
stätigkeit	-11896
▁offenkund	-11897
▁Vermittlung	-11898
▁zukünftigen	-11899
▁Abhängigkeit	-11900
enk	-11901
▁6.	-11902
appe	-11903
iced	-11904
rich	-11905
▁Far	-11906
iring	-11907
kapaz	-11908
▁book	-11909
illing	-11910
▁house	-11911
▁zugute	-11912
unktions	-11913
▁restore	-11914
▁eingesch	-11915
▁Grundlagen	-11916
▁Rechtsrahmen	-11917
▁ursprünglich	-11918
Der	-11919
▁awa	-11920
igern	-11921
osmet	-11922
▁Mold	-11923
▁Egypt	-11924
▁Zerst	-11925
▁deadline	-11926
▁erörtern	-11927
▁imperial	-11928
▁congratulating	-11929
ih	-11930
fraid	-11931
▁spite	-11932
utreten	-11933
▁Bilanz	-11934
▁Declar	-11935
▁afraid	-11936
▁causing	-11937
▁jointly	-11938
▁stronger	-11939
▁bestimmen	-11940
▁dieselben	-11941
▁angemessenen	-11942
CE	-11943
▁Ca	-11944
eins	-11945
ford	-11946
tinu	-11947
stuff	-11948
endung	-11949
▁coastal	-11950
beschluss	-11951
▁Randlage	-11952
▁reagiert	-11953
▁unannehm	-11954
▁inspectors	-11955
▁Besteuerung	-11956
▁Subventionen	-11957
institutionellen	-11958
äte	-11959
▁Kab	-11960
asing	-11961
▁fert	-11962
▁Paris	-11963
▁blind	-11964
nehmbar	-11965
verfolg	-11966
▁Korrupt	-11967
katastrop	-11968
▁ersetzen	-11969
▁zugänglich	-11970
▁Unsicherheit	-11971
▁Verbrauchern	-11972
▁8,	-11973
fügt	-11974
ahnen	-11975
▁Kabel	-11976
▁Milch	-11977
▁Spann	-11978
▁trace	-11979
▁sincer	-11980
fortunate	-11981
▁Nachbarn	-11982
▁northern	-11983
▁consequence	-11984
▁unfortunate	-11985
lem	-11986
arth	-11987
▁yes	-11988
using	-11989
▁bott	-11990
▁stem	-11991
soever	-11992
▁Costa	-11993
holders	-11994
▁nobody	-11995
▁divided	-11996
▁folglich	-11997
herstellung	-11998
▁Widerstand	-11999
▁Abstimmungs	-12000
▁biotechnolog	-12001
▁Diamantopoulou	-12002
back	-12003
▁Vier	-12004
▁none	-12005
tragung	-12006
▁refuse	-12007
▁transe	-12008
▁Jugoslaw	-12009
▁Tausende	-12010
▁combined	-12011
▁harmonised	-12012
▁wiederhole	-12013
▁willkommen	-12014
▁educational	-12015
▁tatsächlichen	-12016
▁Är	-12017
aren	-12018
enne	-12019
▁Fil	-12020
▁Dien	-12021
kunden	-12022
▁Allow	-12023
▁Erdöl	-12024
▁Trotzdem	-12025
▁direkten	-12026
▁akzeptabel	-12027
▁Kaliningrad	-12028
▁experienced	-12029
▁unabhängigen	-12030
ipl	-12031
baus	-12032
▁Bis	-12033
▁Log	-12034
olumb	-12035
▁reun	-12036
sebene	-12037
▁Inner	-12038
▁Strom	-12039
isierte	-12040
methode	-12041
related	-12042
wieweit	-12043
▁Lasten	-12044
▁minute	-12045
▁unions	-12046
▁promoted	-12047
▁religion	-12048
▁everybody	-12049
▁prevented	-12050
▁Representative	-12051
16	-12052
quis	-12053
igert	-12054
▁town	-12055
prechen	-12056
▁agrees	-12057
▁fiscal	-12058
▁spring	-12059
▁globale	-12060
▁install	-12061
▁reserve	-12062
▁encouraged	-12063
▁untersuchen	-12064
▁ausreichende	-12065
▁environmentally	-12066
züg	-12067
bels	-12068
▁GDP	-12069
dring	-12070
▁thir	-12071
▁frank	-12072
enophob	-12073
zeichen	-12074
▁crises	-12075
▁Unserer	-12076
▁distort	-12077
▁destroyed	-12078
▁compatible	-12079
▁interessant	-12080
▁ap	-12081
/02)	-12082
road	-12083
▁buy	-12084
ffect	-12085
ätzen	-12086
▁Saal	-12087
▁erad	-12088
ipping	-12089
▁claims	-12090
▁postpon	-12091
▁turning	-12092
▁discover	-12093
▁reflects	-12094
▁Vereinigte	-12095
▁phenomenon	-12096
▁whatsoever	-12097
▁Jahrhundert	-12098
AO	-12099
▁x	-12100
inner	-12101
▁Wohn	-12102
▁tang	-12103
befehl	-12104
rating	-12105
▁Darin	-12106
▁kurze	-12107
▁Vision	-12108
▁skills	-12109
▁hierbei	-12110
▁schlimm	-12111
management	-12112
▁affecting	-12113
▁receiving	-12114
▁negotiated	-12115
▁Betroffenen	-12116
▁regrettable	-12117
▁Auseinanders	-12118
▁demonstrates	-12119
▁Arbeitsgruppe	-12120
5-06	-12121
oben	-12122
▁Tit	-12123
▁pan	-12124
▁Olymp	-12125
▁Angehör	-12126
▁Schicks	-12127
▁ohnehin	-12128
▁shortly	-12129
▁Aufsicht	-12130
▁Studenten	-12131
▁befürworte	-12132
▁russischen	-12133
▁Ausrichtung	-12134
▁Declaration	-12135
▁Zun	-12136
regen	-12137
▁Maul	-12138
▁Rind	-12139
▁Städ	-12140
▁Karas	-12141
▁flood	-12142
ivalent	-12143
▁Ebenen	-12144
▁Fassung	-12145
▁Inkraft	-12146
▁healthy	-12147
▁immunity	-12148
▁Flughäfen	-12149
▁Vormittag	-12150
▁consulted	-12151
bevölkerung	-12152
▁categories	-12153
▁amerikanische	-12154
▁grundlegender	-12155
ograf	-12156
▁fire	-12157
▁trend	-12158
▁ersuchen	-12159
▁geehrten	-12160
▁judgment	-12161
▁preserve	-12162
▁regelmäßig	-12163
▁vernünftig	-12164
▁kompliziert	-12165
▁territories	-12166
▁Journalisten	-12167
▁eingereichten	-12168
chel	-12169
redit	-12170
zweif	-12171
▁Free	-12172
▁Verg	-12173
▁facto	-12174
▁Profess	-12175
▁bearing	-12176
▁dispute	-12177
▁engaged	-12178
▁verdeut	-12179
▁Folglich	-12180
▁genetisch	-12181
▁Konvention	-12182
▁Parlamenten	-12183
▁Verstärkung	-12184
▁eigentlichen	-12185
▁successfully	-12186
opp	-12187
▁sod	-12188
▁Inso	-12189
▁Kurs	-12190
▁Wald	-12191
atures	-12192
fungen	-12193
▁Verts	-12194
▁shock	-12195
▁shadow	-12196
▁öffnen	-12197
▁Fristen	-12198
tschaften	-12199
▁Schatten	-12200
▁mountain	-12201
▁Verträgen	-12202
▁verdienen	-12203
▁accounting	-12204
▁hergestellt	-12205
▁Lateinamerika	-12206
SA	-12207
uert	-12208
▁Tro	-12209
reben	-12210
▁fand	-12211
▁oben	-12212
▁ober	-12213
▁Poland	-12214
▁Freunde	-12215
▁outbreak	-12216
ranational	-12217
▁undermine	-12218
▁Ausschüsse	-12219
▁exceptions	-12220
atom	-12221
iefst	-12222
kreis	-12223
paket	-12224
fehlen	-12225
▁north	-12226
achtungs	-12227
ducation	-12228
▁infolge	-12229
▁leaving	-12230
▁raising	-12231
▁Gesetzgeb	-12232
▁Produkten	-12233
▁Projekten	-12234
▁ständigen	-12235
▁nachdenken	-12236
▁Veränderung	-12237
▁alternatives	-12238
med	-12239
▁Dad	-12240
kehrt	-12241
▁Evans	-12242
▁accur	-12243
▁remed	-12244
▁Tenden	-12245
▁belief	-12246
▁streng	-12247
situation	-12248
▁Northern	-12249
▁Luftfahrt	-12250
▁confusion	-12251
▁conventions	-12252
▁OS	-12253
kons	-12254
▁12.	-12255
▁rid	-12256
iente	-12257
▁Fünf	-12258
lächen	-12259
▁Betrugs	-12260
▁creates	-12261
▁überras	-12262
operations	-12263
▁behauptet	-12264
▁existiert	-12265
▁Protokolls	-12266
▁gemeinsames	-12267
▁Versicherungs	-12268
▁Straßenverkehr	-12269
All	-12270
iko	-12271
▁Ban	-12272
inger	-12273
gefühl	-12274
▁newsp	-12275
▁aktive	-12276
▁exempt	-12277
▁langem	-12278
methoden	-12279
▁entsteht	-12280
▁movements	-12281
▁Fortsetzung	-12282
25	-12283
habt	-12284
▁lob	-12285
uklear	-12286
▁nötig	-12287
▁zweif	-12288
▁Anhang	-12289
▁Ermitt	-12290
▁Safety	-12291
▁discip	-12292
▁Dadurch	-12293
▁writing	-12294
▁Gebrauch	-12295
▁vermitteln	-12296
▁gleichermaßen	-12297
▁transatlantic	-12298
▁bevorstehenden	-12299
▁congratulations	-12300
▁vorangegangenen	-12301
▁13.	-12302
▁zun	-12303
▁dism	-12304
▁neun	-12305
▁völl	-12306
inated	-12307
riment	-12308
▁herbe	-12309
▁shape	-12310
vorsorge	-12311
▁financed	-12312
▁bezeichnen	-12313
▁Besitzstand	-12314
▁observations	-12315
▁öffentlicher	-12316
roc	-12317
▁ren	-12318
apeut	-12319
▁eyes	-12320
▁surp	-12321
▁watch	-12322
▁expand	-12323
▁geziel	-12324
▁persec	-12325
speriode	-12326
▁detriment	-12327
▁Beobachter	-12328
▁Haftbefehl	-12329
▁historische	-12330
▁keinesfalls	-12331
▁presentation	-12332
▁authorisation	-12333
▁ve	-12334
ambod	-12335
▁India	-12336
▁reven	-12337
ischung	-12338
▁Lernen	-12339
▁Sollte	-12340
▁larger	-12341
▁konkreter	-12342
▁Erinnerung	-12343
▁performance	-12344
17	-12345
onz	-12346
orf	-12347
aceut	-12348
quiry	-12349
▁depr	-12350
▁leid	-12351
▁Armee	-12352
▁Gebiets	-12353
▁slightly	-12354
▁Education	-12355
▁Verfasser	-12356
▁incentives	-12357
▁bureaucratic	-12358
▁schrittweise	-12359
▁Entschädigung	-12360
off	-12361
▁Bal	-12362
▁Sehr	-12363
▁Brenn	-12364
▁Kabelj	-12365
▁Zwecke	-12366
▁kommun	-12367
▁looked	-12368
▁Präsenz	-12369
▁expense	-12370
▁Aufgrund	-12371
▁bedeutende	-12372
▁Kompetenzen	-12373
▁amtierender	-12374
▁Beschäftigten	-12375
▁organisierten	-12376
erer	-12377
ickt	-12378
ifor	-12379
annoy	-12380
apers	-12381
▁Klau	-12382
▁Meer	-12383
▁Migu	-12384
▁Rome	-12385
werfen	-12386
▁fresh	-12387
▁müsse	-12388
▁stolz	-12389
▁Lannoy	-12390
enseuche	-12391
ichteten	-12392
▁Culture	-12393
bereichen	-12394
▁beweisen	-12395
▁scheinen	-12396
▁zutiefst	-12397
zentration	-12398
▁erfordern	-12399
▁Regulierung	-12400
▁Intervention	-12401
▁gegenseitige	-12402
hel	-12403
▁IM	-12404
▁10,	-12405
▁Six	-12406
▁teilt	-12407
▁Auffor	-12408
▁funded	-12409
▁irische	-12410
▁Straftaten	-12411
▁exceptional	-12412
▁Steuerzahler	-12413
▁verabschiede	-12414
▁collaboration	-12415
▁hervorragende	-12416
bl	-12417
▁Regul	-12418
▁banned	-12419
▁europa	-12420
▁marine	-12421
▁clearer	-12422
▁resumed	-12423
▁Einkommen	-12424
▁recycling	-12425
▁threshold	-12426
▁Yugoslavia	-12427
▁zusammenge	-12428
▁unterliegen	-12429
vic	-12430
omet	-12431
▁keen	-12432
lehnen	-12433
▁Mutter	-12434
▁Tonnen	-12435
▁vereinf	-12436
ungsmaßnahmen	-12437
▁Dienstleistungs	-12438
üss	-12439
hear	-12440
rüst	-12441
▁Del	-12442
▁ton	-12443
flanz	-12444
▁Lang	-12445
▁Well	-12446
▁ideal	-12447
▁tritt	-12448
▁strike	-12449
aceutical	-12450
▁Insofern	-12451
▁disagree	-12452
▁regulate	-12453
▁Besonders	-12454
▁Operation	-12455
▁Scheitern	-12456
▁herrschen	-12457
▁complaints	-12458
▁einzugehen	-12459
▁eingeschrän	-12460
▁erweiterten	-12461
▁surrounding	-12462
▁Klauenseuche	-12463
▁justification	-12464
▁Dort	-12465
▁swift	-12466
control	-12467
bewerber	-12468
abgeordne	-12469
▁defining	-12470
▁fünfzehn	-12471
▁generation	-12472
▁aufgeworfen	-12473
▁respektieren	-12474
laß	-12475
ancy	-12476
▁stor	-12477
▁essen	-12478
▁juris	-12479
▁Basque	-12480
▁notice	-12481
▁widmen	-12482
schließt	-12483
▁Islamic	-12484
▁motions	-12485
▁intellectual	-12486
▁Jahresbericht	-12487
fal	-12488
anen	-12489
orten	-12490
▁Leid	-12491
▁Sens	-12492
ktiven	-12493
stuffs	-12494
▁deaths	-12495
▁perpet	-12496
▁voller	-12497
▁Lannoye	-12498
▁erheben	-12499
▁forests	-12500
▁warning	-12501
▁gradually	-12502
▁Prävention	-12503
▁beunruhigt	-12504
▁praktischen	-12505
beschäftigung	-12506
▁Alternativen	-12507
▁Dienststellen	-12508
80	-12509
ía	-12510
öse	-12511
▁ED	-12512
▁Alp	-12513
▁sav	-12514
house	-12515
▁hart	-12516
▁hilf	-12517
ancing	-12518
▁alter	-12519
▁könne	-12520
▁battle	-12521
▁incred	-12522
reformen	-12523
▁showing	-12524
▁Bestände	-12525
▁Energien	-12526
▁weakness	-12527
gestaltung	-12528
▁decentral	-12529
▁vernünftige	-12530
▁Biotechnolog	-12531
▁konzentriert	-12532
▁Parlamentarier	-12533
▁Generalsekretär	-12534
▁9,	-12535
ondo	-12536
ower	-12537
▁Satz	-12538
dessen	-12539
racies	-12540
▁Zusch	-12541
▁hohem	-12542
▁pragm	-12543
sprüche	-12544
▁Govern	-12545
▁verwir	-12546
förderung	-12547
▁Bürokrat	-12548
▁bewirken	-12549
▁erweisen	-12550
▁Identität	-12551
▁eventuell	-12552
▁enttäuscht	-12553
▁einzuhalten	-12554
▁Luftverkehrs	-12555
▁subsequently	-12556
▁Behinderungen	-12557
▁konstruktiven	-12558
ca	-12559
ölf	-12560
▁Pf	-12561
ames	-12562
▁Rec	-12563
rolle	-12564
▁1992	-12565
istent	-12566
▁hoped	-12567
▁prelim	-12568
building	-12569
▁schlage	-12570
▁pursuant	-12571
▁Following	-12572
▁deutliche	-12573
▁Verfolgung	-12574
▁Entschließungen	-12575
▁haz	-12576
cting	-12577
recher	-12578
▁hypoc	-12579
▁notes	-12580
▁fühlen	-12581
▁senten	-12582
vernicht	-12583
▁breiten	-12584
▁gestaltet	-12585
▁permitted	-12586
▁praktische	-12587
▁beteiligten	-12588
▁ausgewogenen	-12589
▁supranational	-12590
▁infrastructures	-12591
ls	-12592
rist	-12593
▁nine	-12594
▁below	-12595
▁Guinea	-12596
▁Zunahme	-12597
▁section	-12598
▁Buitenweg	-12599
▁Kategorie	-12600
▁passenger	-12601
▁definitely	-12602
▁derjenigen	-12603
▁Kooperations	-12604
▁dictatorship	-12605
▁gekennzeichnet	-12606
▁11,	-12607
▁Prov	-12608
▁Work	-12609
igsten	-12610
▁Kluft	-12611
▁usual	-12612
▁Banken	-12613
▁benötigt	-12614
▁gewisser	-12615
▁zentralen	-12616
▁verpflicht	-12617
▁angekündigt	-12618
▁griechische	-12619
▁Finanziellen	-12620
eto	-12621
▁Ram	-12622
achte	-12623
▁wage	-12624
▁began	-12625
anträge	-12626
verhält	-12627
viously	-12628
▁Betrug	-12629
▁Hilfen	-12630
▁Norden	-12631
▁Prozeß	-12632
▁Vorder	-12633
▁fourth	-12634
▁mobile	-12635
▁nahezu	-12636
▁declare	-12637
▁priorit	-12638
▁revised	-12639
▁apparent	-12640
▁Amerikaner	-12641
▁Unterdrück	-12642
▁preliminary	-12643
▁Sozialpolitik	-12644
/9	-12645
olge	-12646
Über	-12647
▁PVC	-12648
▁rul	-12649
▁Lehr	-12650
▁Merc	-12651
▁Genau	-12652
▁davor	-12653
bindung	-12654
▁disreg	-12655
▁Branche	-12656
▁Schulen	-12657
▁Jahrzehn	-12658
▁indicate	-12659
demokraten	-12660
▁slaughter	-12661
▁Missbrauch	-12662
▁underlying	-12663
▁populations	-12664
▁respektiert	-12665
IT	-12666
▁bio	-12667
▁Lohn	-12668
▁Scot	-12669
spläne	-12670
▁Föder	-12671
▁Suche	-12672
▁radik	-12673
▁Geheim	-12674
▁marked	-12675
▁turned	-12676
▁scrutin	-12677
▁stammen	-12678
▁Rumänien	-12679
▁dasselbe	-12680
Mittelmeer	-12681
▁angehören	-12682
▁österreich	-12683
down	-12684
odex	-12685
aring	-12686
erium	-12687
chmark	-12688
▁Chile	-12689
▁Wille	-12690
▁island	-12691
iscrimin	-12692
▁enhance	-12693
▁sending	-12694
▁Differen	-12695
▁Erschein	-12696
▁strictly	-12697
▁wenigsten	-12698
▁Sy	-12699
mium	-12700
▁Hol	-12701
▁unp	-12702
▁weg	-12703
illon	-12704
▁Effe	-12705
▁covers	-12706
▁manche	-12707
▁Abfälle	-12708
▁Seville	-12709
▁aggress	-12710
▁broader	-12711
▁customs	-12712
▁interpre	-12713
▁überprüft	-12714
▁kritisiert	-12715
▁weltweiten	-12716
▁uncertainty	-12717
▁Delegationen	-12718
▁ökologischen	-12719
▁Menschenhandel	-12720
asc	-12721
gue	-12722
▁Its	-12723
rängt	-12724
▁Blair	-12725
▁Polen	-12726
▁geein	-12727
▁sugar	-12728
zufolge	-12729
▁zuerst	-12730
▁Kontext	-12731
▁Planung	-12732
▁Sevilla	-12733
▁verläng	-12734
▁bedenken	-12735
▁civilian	-12736
politische	-12737
▁Minderheit	-12738
▁beobachten	-12739
▁retirement	-12740
▁suggestions	-12741
▁wünschenswert	-12742
fi	-12743
▁50%	-12744
▁GMO	-12745
▁asp	-12746
ifest	-12747
leute	-12748
▁Embry	-12749
▁ersta	-12750
sektors	-12751
verwalt	-12752
öffnung	-12753
▁lehnen	-12754
▁gelangt	-12755
▁hundred	-12756
▁torture	-12757
▁bewiesen	-12758
▁Heimatland	-12759
gesetzgebung	-12760
▁incorporate	-12761
▁pharmaceutical	-12762
ede	-12763
merz	-12764
▁19.	-12765
debat	-12766
▁Sind	-12767
▁arab	-12768
verbot	-12769
sichtig	-12770
▁Bauern	-12771
▁Centre	-12772
▁Folter	-12773
▁refugee	-12774
▁surplus	-12775
ederation	-12776
▁preventive	-12777
▁wenngleich	-12778
▁extraordinary	-12779
oli	-12780
pal	-12781
▁Beg	-12782
/02):	-12783
reize	-12784
▁Frid	-12785
▁Hoff	-12786
▁Slow	-12787
afrika	-12788
▁Alles	-12789
▁spect	-12790
▁Monday	-12791
▁debatt	-12792
▁einher	-12793
▁killed	-12794
▁Verpack	-12795
▁Redezeit	-12796
▁einfache	-12797
▁physical	-12798
▁monitored	-12799
▁Vordergrund	-12800
▁persönliche	-12801
▁konstruktive	-12802
▁Massenvernicht	-12803
pread	-12804
weich	-12805
▁1993	-12806
▁Appe	-12807
▁Prop	-12808
▁lenken	-12809
▁abgeben	-12810
▁topical	-12811
▁deterior	-12812
änderungen	-12813
▁glaubwürd	-12814
ony	-12815
yle	-12816
etus	-12817
holen	-12818
ünfte	-12819
▁Most	-12820
limmer	-12821
▁Still	-12822
▁Argent	-12823
▁Konzep	-12824
▁ignore	-12825
▁konsult	-12826
idespread	-12827
zahlungen	-12828
▁resident	-12829
▁rejection	-12830
▁therapeut	-12831
▁candidates	-12832
▁umfassender	-12833
▁conservation	-12834
én	-12835
adox	-12836
▁dur	-12837
mosph	-12838
▁frustr	-12839
▁raises	-12840
▁tariff	-12841
▁decades	-12842
▁pursued	-12843
▁Nichtreg	-12844
▁thousand	-12845
▁xenophob	-12846
▁yourself	-12847
▁Korruption	-12848
▁Unternehmer	-12849
▁eigentliche	-12850
▁unerlässlich	-12851
▁institutionelle	-12852
▁Av	-12853
▁Mul	-12854
einen	-12855
place	-12856
▁mere	-12857
▁ries	-12858
gipfel	-12859
itably	-12860
▁Wandel	-12861
▁donors	-12862
▁wählen	-12863
▁Behaupt	-12864
▁gefragt	-12865
▁intoler	-12866
▁Ausübung	-12867
▁Einwände	-12868
▁Partnern	-12869
▁Schiffen	-12870
▁gewonnen	-12871
▁Paragraph	-12872
▁betrieben	-12873
▁sozusagen	-12874
▁Management	-12875
▁sämtlichen	-12876
▁Arbeitszeit	-12877
▁Conciliation	-12878
▁Vorstellungen	-12879
▁Mittelmeerraum	-12880
▁Nichtregierungs	-12881
/1	-12882
iary	-12883
▁norm	-12884
▁Führer	-12885
mögliche	-12886
▁bedroht	-12887
ervativen	-12888
▁Immunität	-12889
▁vermieden	-12890
▁allocation	-12891
▁reduzieren	-12892
rak	-12893
repr	-12894
▁Air	-12895
▁fit	-12896
▁müß	-12897
eping	-12898
▁Year	-12899
(2002)	-12900
▁Artik	-12901
▁enshr	-12902
oleranz	-12903
▁jurisd	-12904
▁älteren	-12905
▁Tatsachen	-12906
▁regionaler	-12907
finanzierung	-12908
▁bureaucracy	-12909
6,	-12910
▁liv	-12911
▁rück	-12912
▁begeg	-12913
▁hoher	-12914
▁lesen	-12915
ifelong	-12916
▁Montag	-12917
▁Umfeld	-12918
▁Similar	-12919
▁scandal	-12920
▁zurzeit	-12921
mechanismen	-12922
▁widespread	-12923
▁natürlichen	-12924
▁ratifiziert	-12925
▁Gerichtshofs	-12926
▁umfangreiche	-12927
▁65	-12928
lang	-12929
/00):	-12930
1999)	-12931
giene	-12932
▁Dipl	-12933
▁Etik	-12934
▁puts	-12935
▁viable	-12936
stockung	-12937
▁Euratom	-12938
▁Palästin	-12939
▁patients	-12940
▁Kraftfahr	-12941
▁ausgehend	-12942
▁desirable	-12943
▁negotiate	-12944
▁gleichberecht	-12945
grad	-12946
öten	-12947
▁12,	-12948
oring	-12949
▁kümm	-12950
▁Asien	-12951
▁became	-12952
▁reveal	-12953
strichen	-12954
▁Nachdem	-12955
▁observe	-12956
▁rechnen	-12957
▁Gefangen	-12958
▁anstreben	-12959
▁taxpayers	-12960
▁beträchtliche	-12961
osur	-12962
▁Est	-12963
▁III	-12964
▁USD	-12965
▁dog	-12966
oured	-12967
ancies	-12968
▁Treib	-12969
▁arres	-12970
▁junge	-12971
▁tools	-12972
ichtete	-12973
▁Serbia	-12974
▁Solbes	-12975
▁sphere	-12976
▁Ausfuhr	-12977
▁lacking	-12978
▁Pflanzen	-12979
▁erklärte	-12980
▁nützlich	-12981
▁sympathy	-12982
sprogramms	-12983
▁einhalten	-12984
▁erzielten	-12985
▁sincerely	-12986
▁äußerster	-12987
▁Vorbehalte	-12988
▁containing	-12989
▁überwachen	-12990
▁Verzögerungen	-12991
▁150	-12992
▁App	-12993
▁2007	-12994
▁feas	-12995
▁Zentr	-12996
▁sight	-12997
▁fehlen	-12998
▁zwangs	-12999
▁Allianz	-13000
▁Annäher	-13001
▁pretext	-13002
▁Atlantic	-13003
▁reliable	-13004
▁Emissionen	-13005
▁Königreichs	-13006
▁disappointed	-13007
andt	-13008
▁Lud	-13009
eiden	-13010
▁hohes	-13011
stitute	-13012
unately	-13013
▁Mulder	-13014
agements	-13015
iversity	-13016
▁Kräften	-13017
▁arising	-13018
▁impetus	-13019
▁stellte	-13020
ständigen	-13021
▁Beihilfe	-13022
▁occurred	-13023
▁concludes	-13024
▁packaging	-13025
Kenn	-13026
erted	-13027
▁Gonz	-13028
▁Paul	-13029
▁Weil	-13030
gänzen	-13031
hafter	-13032
weiten	-13033
▁Hence	-13034
▁refused	-13035
▁arbeitet	-13036
▁profound	-13037
▁ausgegeben	-13038
▁revolution	-13039
▁Äg	-13040
▁Cas	-13041
▁Kau	-13042
▁Rio	-13043
▁ört	-13044
antly	-13045
▁heik	-13046
itives	-13047
reform	-13048
▁assum	-13049
▁cheap	-13050
▁contacts	-13051
▁soldiers	-13052
▁disappear	-13053
▁empfehlen	-13054
▁Versorgung	-13055
▁derartigen	-13056
▁inspections	-13057
▁Auffassungen	-13058
▁beschleunigen	-13059
35	-13060
▁Sw	-13061
know	-13062
ährt	-13063
▁Dat	-13064
jekte	-13065
reprene	-13066
▁talked	-13067
▁drängen	-13068
▁bezahlen	-13069
▁unabding	-13070
▁Obviously	-13071
▁einführen	-13072
▁gefährden	-13073
▁underline	-13074
▁Demokraten	-13075
▁strategische	-13076
▁Sozialpartner	-13077
19	-13078
größ	-13079
undi	-13080
chnet	-13081
▁Again	-13082
▁Bevor	-13083
▁Stamm	-13084
▁zwölf	-13085
▁Anreiz	-13086
▁freely	-13087
▁heißen	-13088
gehenden	-13089
▁Vorfeld	-13090
▁council	-13091
▁lessons	-13092
▁erlauben	-13093
▁intellig	-13094
öffentlich	-13095
▁accompanied	-13096
▁compromises	-13097
▁declarations	-13098
bew	-13099
ckx	-13100
▁Sav	-13101
▁Fourth	-13102
▁lasting	-13103
▁ergänzen	-13104
▁Betreiber	-13105
▁Konflikts	-13106
▁expensive	-13107
▁inwieweit	-13108
▁medicinal	-13109
▁Beurteilung	-13110
▁klarstellen	-13111
▁controversial	-13112
▁modernisation	-13113
▁Marktwirtschaft	-13114
▁Wissenschaftler	-13115
bie	-13116
▁Ku	-13117
strö	-13118
ühen	-13119
▁Nob	-13120
führte	-13121
▁items	-13122
▁minim	-13123
▁schön	-13124
▁sogen	-13125
▁Opfern	-13126
▁contam	-13127
▁Chinese	-13128
▁Drittel	-13129
▁stützen	-13130
▁verwirk	-13131
▁geehrter	-13132
▁resulted	-13133
▁Rindfleisch	-13134
▁Ke	-13135
hood	-13136
ulous	-13137
▁dahin	-13138
▁invite	-13139
▁length	-13140
▁Einstimm	-13141
▁Mercosur	-13142
▁Scotland	-13143
▁beiträgt	-13144
▁meantime	-13145
▁Gewährung	-13146
▁Palestine	-13147
▁wirksamen	-13148
▁afrikanischen	-13149
▁Mitentscheidung	-13150
wid	-13151
▁Ext	-13152
▁Kor	-13153
▁erb	-13154
▁übr	-13155
anzig	-13156
hetor	-13157
ossen	-13158
ürgern	-13159
▁firms	-13160
▁Darauf	-13161
▁Stunde	-13162
▁corpor	-13163
▁leader	-13164
▁Bekannt	-13165
▁Krieges	-13166
ungswaffen	-13167
▁Patienten	-13168
▁philosoph	-13169
▁stärksten	-13170
▁exclusively	-13171
▁eingerichtet	-13172
▁Vorsorgeprinzip	-13173
let	-13174
uis	-13175
▁Verd	-13176
▁adequ	-13177
▁recip	-13178
vergenz	-13179
ündeten	-13180
▁checks	-13181
▁gather	-13182
▁prompt	-13183
anspruch	-13184
▁begünst	-13185
▁geklärt	-13186
▁offices	-13187
▁genießen	-13188
▁ähnliche	-13189
ressourcen	-13190
▁equivalent	-13191
▁Beschränkungen	-13192
67	-13193
no	-13194
▁versp	-13195
prozess	-13196
▁Direkt	-13197
▁intell	-13198
▁suggests	-13199
▁Tradition	-13200
gewogenheit	-13201
▁Erwägungen	-13202
▁ausgeführt	-13203
▁inspection	-13204
▁resistance	-13205
▁perspectives	-13206
look	-13207
ogau	-13208
▁140	-13209
▁Miß	-13210
▁cuts	-13211
schiff	-13212
▁Titel	-13213
▁theor	-13214
▁Fakten	-13215
▁Sterckx	-13216
▁enormen	-13217
streaming	-13218
▁Wortmeld	-13219
▁kritisch	-13220
▁Absichten	-13221
▁Sitzungen	-13222
▁begründet	-13223
▁gewünscht	-13224
▁observers	-13225
▁verbieten	-13226
▁abzulehnen	-13227
▁restrictive	-13228
▁verwirklichen	-13229
▁Demokratischen	-13230
▁Haushaltslinie	-13231
▁ECO	-13232
▁TAC	-13233
▁inj	-13234
▁cert	-13235
▁möge	-13236
▁Doppel	-13237
▁unique	-13238
▁Dritten	-13239
▁informal	-13240
▁Asylbewerber	-13241
▁langfristige	-13242
▁Geltungsbereich	-13243
49	-13244
rain	-13245
view	-13246
irmen	-13247
zahlt	-13248
▁Thus	-13249
▁Wogau	-13250
▁bedür	-13251
ungsbew	-13252
▁vollen	-13253
undering	-13254
▁jeweils	-13255
▁logical	-13256
▁proport	-13257
▁regarded	-13258
▁Tourismus	-13259
▁unabhängige	-13260
▁Landwirtschafts	-13261
regel	-13262
▁Brut	-13263
▁Stahl	-13264
▁anzup	-13265
▁begun	-13266
▁islam	-13267
▁kolle	-13268
▁prime	-13269
gegeben	-13270
▁Milose	-13271
▁Textes	-13272
▁search	-13273
▁Auswahl	-13274
▁geprägt	-13275
einkommen	-13276
▁shipping	-13277
▁Zielsetzung	-13278
▁investieren	-13279
▁Haushaltsjahr	-13280
fel	-13281
ser	-13282
änz	-13283
ález	-13284
▁error	-13285
▁zählt	-13286
fähigen	-13287
▁nearly	-13288
▁Betrieb	-13289
▁González	-13290
▁Morillon	-13291
▁Vermarkt	-13292
▁complied	-13293
▁eröffnet	-13294
▁modernen	-13295
▁reported	-13296
▁Anschluss	-13297
▁Schicksal	-13298
▁alongside	-13299
▁beitreten	-13300
▁Annäherung	-13301
▁comparison	-13302
▁accordingly	-13303
▁Ratspräsidentin	-13304
39	-13305
8(	-13306
hü	-13307
ibiot	-13308
chelon	-13309
stände	-13310
tellte	-13311
wächen	-13312
▁Freit	-13313
▁farms	-13314
▁stages	-13315
▁Völkern	-13316
▁choices	-13317
▁leistet	-13318
▁Gespräch	-13319
▁drittens	-13320
▁zukommen	-13321
▁demograph	-13322
▁harmonise	-13323
▁demokratischer	-13324
5­	-13325
how	-13326
iori	-13327
ößen	-13328
▁Serv	-13329
▁kohär	-13330
olition	-13331
▁denied	-13332
▁devast	-13333
▁wirken	-13334
olitical	-13335
▁beendet	-13336
▁korrekt	-13337
▁recital	-13338
▁einzusch	-13339
regelungen	-13340
▁electoral	-13341
▁ernsthafte	-13342
▁regardless	-13343
▁Kapazitäten	-13344
▁gefährlichen	-13345
▁Ta	-13346
▁Ök	-13347
▁Yes	-13348
▁adj	-13349
known	-13350
merkt	-13351
ounded	-13352
▁catch	-13353
▁unity	-13354
kapital	-13355
▁Kontin	-13356
▁Herange	-13357
▁listened	-13358
▁tangible	-13359
▁entreprene	-13360
▁Indikatoren	-13361
aid	-13362
iro	-13363
iche	-13364
▁15.	-13365
▁cha	-13366
liste	-13367
mouth	-13368
▁Sant	-13369
▁posts	-13370
▁solid	-13371
▁schuld	-13372
▁weisen	-13373
▁kleiner	-13374
▁science	-13375
▁steigen	-13376
▁Bürokratie	-13377
▁recognises	-13378
▁Inkrafttreten	-13379
▁Stellungnahmen	-13380
▁Get	-13381
werts	-13382
▁1999.	-13383
quellen	-13384
ulating	-13385
▁gedenkt	-13386
▁schwere	-13387
▁tribute	-13388
▁Demonstr	-13389
▁Großteil	-13390
▁credible	-13391
▁offering	-13392
▁standing	-13393
▁effektive	-13394
iodiversity	-13395
▁Investment	-13396
▁zwangsläufig	-13397
▁Wachstumspakt	-13398
▁characteristics	-13399
ussy	-13400
üste	-13401
▁Act	-13402
▁Vel	-13403
oping	-13404
▁dele	-13405
ausend	-13406
▁liked	-13407
▁rufen	-13408
sträger	-13409
▁string	-13410
▁Ludford	-13411
▁mittels	-13412
▁externen	-13413
▁eliminate	-13414
▁vorrangig	-13415
▁westlichen	-13416
▁efficiently	-13417
▁enforcement	-13418
▁journalists	-13419
▁verschaffen	-13420
▁approximately	-13421
▁Unterzeichnung	-13422
▁Infrastrukturen	-13423
KS	-13424
ruf	-13425
board	-13426
werke	-13427
▁Block	-13428
▁socio	-13429
kräften	-13430
verzerr	-13431
▁Michel	-13432
▁cultiv	-13433
▁leaves	-13434
▁vorank	-13435
▁Gebäude	-13436
▁directed	-13437
▁gegangen	-13438
▁Similarly	-13439
▁executive	-13440
▁gewählten	-13441
▁irakischen	-13442
▁respecting	-13443
▁Menschenrechten	-13444
3(	-13445
Sch	-13446
▁Fü	-13447
ohlen	-13448
quote	-13449
trägt	-13450
▁Grad	-13451
▁Your	-13452
▁save	-13453
▁umso	-13454
▁cease	-13455
▁Persön	-13456
▁Anreize	-13457
▁jeglich	-13458
▁partial	-13459
▁vorüber	-13460
▁Aussagen	-13461
▁Luftraum	-13462
▁promises	-13463
▁Fernsehen	-13464
▁Pflichten	-13465
▁geblieben	-13466
▁Konvergenz	-13467
▁preparatory	-13468
ijk	-13469
umn	-13470
äßt	-13471
▁13,	-13472
▁Stad	-13473
etzten	-13474
liehen	-13475
▁Schott	-13476
▁victim	-13477
reaching	-13478
▁Europar	-13479
▁Organen	-13480
▁großzüg	-13481
▁savings	-13482
▁Kontakte	-13483
▁Tragödie	-13484
▁zerstört	-13485
▁Interoper	-13486
▁systematic	-13487
▁untersucht	-13488
▁Vorsitzende	-13489
▁distributed	-13490
▁vorgesehene	-13491
▁Kommunikations	-13492
▁na	-13493
uden	-13494
▁wind	-13495
gehende	-13496
▁crimin	-13497
▁Freitag	-13498
vertreter	-13499
▁Beschluß	-13500
▁Gründung	-13501
▁personnel	-13502
▁Vertrauens	-13503
▁authorised	-13504
▁amtierenden	-13505
kul	-13506
ohl	-13507
▁VAT	-13508
▁Who	-13509
▁Roma	-13510
▁city	-13511
▁wozu	-13512
ynamik	-13513
▁Indien	-13514
▁Monter	-13515
▁Sensib	-13516
▁prejud	-13517
▁Bedauern	-13518
▁Umstände	-13519
▁computer	-13520
▁controlled	-13521
▁bilateralen	-13522
▁terroristischen	-13523
▁IV	-13524
▁Kur	-13525
astet	-13526
▁Gott	-13527
▁rund	-13528
▁team	-13529
▁tend	-13530
sprach	-13531
▁Licht	-13532
▁freut	-13533
▁minor	-13534
▁schwe	-13535
bestand	-13536
▁Inseln	-13537
▁Reicht	-13538
▁Napolit	-13539
▁strenge	-13540
▁bereiten	-13541
abstimmung	-13542
▁Milosevic	-13543
▁Regarding	-13544
▁acceptance	-13545
▁verringert	-13546
▁Mechanismus	-13547
▁vorzuschlagen	-13548
71	-13549
EP	-13550
asus	-13551
stab	-13552
▁BIP	-13553
▁swe	-13554
▁umge	-13555
▁Alter	-13556
▁judge	-13557
▁pilot	-13558
▁purch	-13559
▁sicht	-13560
▁beginnt	-13561
▁dismant	-13562
▁founded	-13563
▁cultures	-13564
▁Kohäsions	-13565
▁Palästina	-13566
▁integrate	-13567
▁hervorragenden	-13568
▁43	-13569
▁Jo	-13570
heil	-13571
▁Fer	-13572
rufen	-13573
orters	-13574
rungen	-13575
wärtig	-13576
▁decre	-13577
▁unres	-13578
regular	-13579
freiheiten	-13580
▁angestreb	-13581
▁erweitert	-13582
▁Napolitano	-13583
▁economically	-13584
Pl	-13585
ößt	-13586
▁Gisc	-13587
▁seed	-13588
ändler	-13589
▁image	-13590
falussy	-13591
▁Castro	-13592
▁Algeria	-13593
▁Giscard	-13594
▁emission	-13595
rechtliche	-13596
▁Ergänzung	-13597
▁Funktions	-13598
▁Migration	-13599
▁Nachfrage	-13600
▁durchsetzen	-13601
▁durchgeführten	-13602
Un	-13603
eu	-13604
▁39	-13605
▁EURO	-13606
zenten	-13607
▁blame	-13608
▁Detail	-13609
▁forese	-13610
▁klären	-13611
▁sodass	-13612
▁Haftung	-13613
▁advocate	-13614
▁ausdrück	-13615
▁convince	-13616
▁handling	-13617
kommission	-13618
▁Otherwise	-13619
▁eventually	-13620
spräsidenten	-13621
▁Anwesenheit	-13622
▁Redebeitrag	-13623
▁hinzuweisen	-13624
▁herzustellen	-13625
▁verpflichten	-13626
▁7.	-13627
▁10.	-13628
▁Bon	-13629
▁fam	-13630
ämpft	-13631
▁Werk	-13632
iforis	-13633
▁inhab	-13634
igation	-13635
▁promise	-13636
▁disputes	-13637
▁Einzelnen	-13638
▁Katiforis	-13639
▁gehandelt	-13640
▁gesichert	-13641
▁Aufstockung	-13642
▁fortgesetzt	-13643
▁schriftlich	-13644
▁aufgegriffen	-13645
▁disabilities	-13646
▁erfolgreichen	-13647
ta	-13648
ßt	-13649
vak	-13650
nest	-13651
quin	-13652
▁Kir	-13653
fined	-13654
assten	-13655
körper	-13656
ulling	-13657
▁Could	-13658
▁Tempo	-13659
▁route	-13660
▁shame	-13661
▁Opport	-13662
▁Unfall	-13663
▁Unglück	-13664
▁chapter	-13665
▁Beziehung	-13666
▁Folgendes	-13667
▁functions	-13668
geschrieben	-13669
▁Zerstörung	-13670
▁seinerzeit	-13671
▁Fischereise	-13672
▁bedeutenden	-13673
roat	-13674
öste	-13675
▁Bow	-13676
▁anb	-13677
▁Beim	-13678
▁Empf	-13679
▁Maes	-13680
▁Logik	-13681
periode	-13682
ussions	-13683
▁Hauptz	-13684
▁ernste	-13685
▁justiz	-13686
Vertrags	-13687
änderung	-13688
▁Angebot	-13689
verteilung	-13690
▁diskrimin	-13691
▁verankert	-13692
▁amtierende	-13693
▁biodiversity	-13694
itts	-13695
omin	-13696
▁Pos	-13697
arked	-13698
▁drop	-13699
region	-13700
▁lists	-13701
▁Armuts	-13702
▁Können	-13703
▁forest	-13704
▁Daseins	-13705
▁praktiz	-13706
▁prevail	-13707
▁vorauss	-13708
vereinbar	-13709
▁dieselbe	-13710
ssicherheit	-13711
▁Aufforderung	-13712
▁schrecklichen	-13713
kom	-13714
dete	-13715
▁Soc	-13716
iertes	-13717
ingung	-13718
lichem	-13719
nächst	-13720
▁Schne	-13721
▁Sixth	-13722
▁zügig	-13723
▁redund	-13724
▁selten	-13725
▁Busquin	-13726
▁Technik	-13727
▁cloning	-13728
▁constra	-13729
▁ersetzt	-13730
fertigung	-13731
▁replaced	-13732
▁targeted	-13733
▁Kommissare	-13734
▁Lamfalussy	-13735
▁effiziente	-13736
▁respective	-13737
▁Ausgewogenheit	-13738
LE	-13739
▁McC	-13740
ctors	-13741
maßen	-13742
▁Port	-13743
annual	-13744
merken	-13745
▁Komit	-13746
▁Tunis	-13747
▁Maaten	-13748
▁Verurs	-13749
▁tenden	-13750
▁Etikett	-13751
▁interne	-13752
▁behalten	-13753
▁derselben	-13754
▁interoper	-13755
änglichkeit	-13756
▁Verzögerung	-13757
▁ausgewogene	-13758
▁Beobachtungs	-13759
▁universities	-13760
▁unterstrichen	-13761
▁Friedensprozess	-13762
▁Sitzungsperiode	-13763
sst	-13764
▁Flor	-13765
▁arch	-13766
führer	-13767
▁Mexic	-13768
▁enger	-13769
▁remov	-13770
▁vigor	-13771
reicher	-13772
▁Klaren	-13773
▁bemerk	-13774
▁engine	-13775
▁basiert	-13776
▁preserv	-13777
▁sterben	-13778
▁imposing	-13779
▁Hochschul	-13780
▁Questions	-13781
▁ungerecht	-13782
▁traditions	-13783
▁Jugoslawien	-13784
▁Generationen	-13785
▁representing	-13786
6(	-13787
gä	-13788
▁9.	-13789
comp	-13790
dies	-13791
ektor	-13792
▁depl	-13793
▁Texte	-13794
▁trave	-13795
sitzung	-13796
▁Ausbau	-13797
▁Besatz	-13798
▁barbar	-13799
▁cancer	-13800
▁propag	-13801
▁senken	-13802
▁Conserv	-13803
▁England	-13804
▁größter	-13805
▁joining	-13806
▁transit	-13807
▁vorsehen	-13808
▁Communist	-13809
▁gratuliere	-13810
▁profession	-13811
▁threatened	-13812
▁unverzicht	-13813
▁Fähigkeiten	-13814
▁außergewöhn	-13815
▁Überarbeitung	-13816
▁qualifications	-13817
▁traditionellen	-13818
2-	-13819
asil	-13820
uban	-13821
▁doll	-13822
(1999)	-13823
▁Annex	-13824
Program	-13825
changes	-13826
appropri	-13827
republik	-13828
▁Pfeiler	-13829
▁abzusch	-13830
▁täglich	-13831
▁abzielen	-13832
▁erstmals	-13833
▁ständige	-13834
chenschaft	-13835
▁Monterrey	-13836
▁accepting	-13837
instrumente	-13838
▁approaches	-13839
▁criticised	-13840
▁definieren	-13841
▁vernünftigen	-13842
▁Einschränkung	-13843
cks	-13844
mäh	-13845
ube	-13846
ries	-13847
sider	-13848
angers	-13849
▁Equal	-13850
▁compe	-13851
▁teach	-13852
ikalien	-13853
▁broadc	-13854
▁solved	-13855
wegungen	-13856
▁ergänzt	-13857
▁visited	-13858
▁Leistung	-13859
▁covering	-13860
▁gelassen	-13861
zuarbeiten	-13862
▁percentage	-13863
▁Wichtigkeit	-13864
▁Geschlechter	-13865
▁jurisdiction	-13866
▁organisieren	-13867
▁traceability	-13868
▁vollständigen	-13869
dok	-13870
iop	-13871
läg	-13872
free	-13873
asion	-13874
▁coinc	-13875
▁worthy	-13876
▁ceiling	-13877
▁failing	-13878
▁helpful	-13879
▁obliegt	-13880
Protokoll	-13881
möglichen	-13882
▁irregular	-13883
▁stärkeren	-13884
▁generations	-13885
▁verschiedener	-13886
▁angesprochenen	-13887
cul	-13888
▁Fus	-13889
orter	-13890
▁Rest	-13891
▁deny	-13892
▁innoc	-13893
▁wofür	-13894
▁woman	-13895
▁Flotte	-13896
▁multip	-13897
aßnahmen	-13898
▁relative	-13899
▁Weiterhin	-13900
▁initially	-13901
verständnis	-13902
▁Bewusstsein	-13903
▁Biotechnologie	-13904
ores	-13905
▁Roh	-13906
▁erh	-13907
▁nar	-13908
Länder	-13909
▁Beibe	-13910
▁sales	-13911
▁zielt	-13912
▁hierzu	-13913
▁überfl	-13914
▁genauer	-13915
▁silence	-13916
▁offences	-13917
▁scrutiny	-13918
▁verteilt	-13919
▁berichten	-13920
▁buildings	-13921
▁incentive	-13922
▁wholehear	-13923
▁Aufrechter	-13924
▁Menschheit	-13925
▁frequently	-13926
▁einbeziehen	-13927
▁Außengrenzen	-13928
▁Unterdrückung	-13929
▁Währungsunion	-13930
▁Einstimmigkeit	-13931
▁diesbezügliche	-13932
ips	-13933
nes	-13934
gling	-13935
rägen	-13936
space	-13937
wider	-13938
▁pays	-13939
▁scen	-13940
langes	-13941
▁Andre	-13942
▁Their	-13943
▁lingu	-13944
meidung	-13945
▁Appell	-13946
▁mother	-13947
▁Märkten	-13948
▁Tschech	-13949
▁theoret	-13950
▁entering	-13951
▁outlined	-13952
▁Meinungen	-13953
▁Referendum	-13954
▁scientists	-13955
▁wahrnehmen	-13956
▁Ausschüssen	-13957
▁Verhaltensk	-13958
▁gefährliche	-13959
▁verursachen	-13960
▁beeinträchtigt	-13961
örd	-13962
▁Wäl	-13963
staing	-13964
▁Stück	-13965
▁Would	-13966
▁borne	-13967
▁Muslim	-13968
▁Werden	-13969
▁rasche	-13970
▁concent	-13971
▁geplant	-13972
▁umgehen	-13973
programme	-13974
regierung	-13975
▁Finanzen	-13976
▁bewahren	-13977
strukturen	-13978
▁einräumen	-13979
▁exchanges	-13980
▁exemption	-13981
▁deutlicher	-13982
▁Drittstaats	-13983
aken	-13984
erry	-13985
ileg	-13986
▁Tob	-13987
▁cat	-13988
▁gäbe	-13989
icated	-13990
▁quota	-13991
itarian	-13992
usetzen	-13993
▁explos	-13994
▁prescr	-13995
alitäten	-13996
▁Fußball	-13997
▁eigenes	-13998
▁einschläg	-13999
▁Konflikten	-14000
▁gestrichen	-14001
▁subsequent	-14002
▁Datenschutz	-14003
▁Komitologie	-14004
▁Arbeitsweise	-14005
▁Beibehaltung	-14006
verfolgbarkeit	-14007
41	-14008
▁win	-14009
kräft	-14010
▁subs	-14011
▁urban	-14012
ugtuung	-14013
▁bewußt	-14014
▁veranl	-14015
▁vermut	-14016
▁Erfolge	-14017
▁Rahmens	-14018
▁ideolog	-14019
▁mittler	-14020
▁aufbauen	-14021
▁ermutigen	-14022
▁Genugtuung	-14023
▁Gesamtheit	-14024
▁apparently	-14025
▁verbleiben	-14026
▁durchgesetzt	-14027
)].	-14028
ador	-14029
▁Ple	-14030
▁ere	-14031
emiss	-14032
heber	-14033
▁Nähe	-14034
▁expl	-14035
▁Somit	-14036
▁match	-14037
schritt	-14038
▁Diesen	-14039
▁divide	-14040
▁klarer	-14041
▁Derzeit	-14042
▁monopoly	-14043
▁Fraktions	-14044
▁abstained	-14045
▁campaigns	-14046
▁criterion	-14047
▁coordinate	-14048
▁Beschwerden	-14049
▁assessments	-14050
▁biotechnology	-14051
▁Gewerkschaften	-14052
▁Mitgliedschaft	-14053
▁%.	-14054
dung	-14055
imor	-14056
isms	-14057
▁Wur	-14058
▁sah	-14059
▁Blok	-14060
▁läßt	-14061
asting	-14062
lechts	-14063
rimine	-14064
itology	-14065
jährige	-14066
▁Erasmus	-14067
▁Mission	-14068
▁Niemand	-14069
▁arrived	-14070
▁höchsten	-14071
▁released	-14072
▁deadlines	-14073
▁forgotten	-14074
▁beinhalten	-14075
▁Chemikalien	-14076
▁abgeschafft	-14077
▁übermittelt	-14078
▁safeguarding	-14079
▁umweltfreund	-14080
▁participating	-14081
agd	-14082
cro	-14083
zeg	-14084
▁Eco	-14085
▁Tar	-14086
respe	-14087
▁Haut	-14088
warten	-14089
▁Youth	-14090
▁Kunden	-14091
▁Sofort	-14092
▁festen	-14093
▁nament	-14094
▁Konkurr	-14095
▁Verlust	-14096
▁einiges	-14097
▁admitted	-14098
▁gebrauch	-14099
respective	-14100
zusprechen	-14101
▁Administr	-14102
▁Naturally	-14103
▁Professor	-14104
▁hilfreich	-14105
▁repräsent	-14106
empt	-14107
uers	-14108
▁137	-14109
▁Tru	-14110
ktive	-14111
▁unit	-14112
holung	-14113
usalem	-14114
▁Above	-14115
▁sites	-14116
▁Prosec	-14117
▁beherr	-14118
▁troops	-14119
▁unreal	-14120
▁cigaret	-14121
▁usually	-14122
▁Beratung	-14123
▁begangen	-14124
▁geforder	-14125
▁lifelong	-14126
▁aufrechter	-14127
▁49	-14128
ogue	-14129
uled	-14130
▁Two	-14131
▁cow	-14132
agent	-14133
korea	-14134
räume	-14135
wagen	-14136
weile	-14137
▁Kauf	-14138
▁died	-14139
▁morg	-14140
▁knapp	-14141
▁looks	-14142
astrous	-14143
istical	-14144
reibung	-14145
▁allmäh	-14146
▁zwingen	-14147
▁facility	-14148
▁gebunden	-14149
▁managing	-14150
reichenden	-14151
▁Spielraum	-14152
▁coalition	-14153
▁examining	-14154
▁hopefully	-14155
▁Veröffentlich	-14156
▁reunification	-14157
▁Rahmenprogramm	-14158
▁investigations	-14159
cia	-14160
endt	-14161
▁Ala	-14162
▁argu	-14163
▁sacr	-14164
ktisch	-14165
lander	-14166
▁solch	-14167
▁assets	-14168
▁bewaff	-14169
erusalem	-14170
▁Monopol	-14171
▁angehen	-14172
▁ansehen	-14173
▁ehrlich	-14174
▁lokaler	-14175
▁geringer	-14176
▁umgehend	-14177
▁beurteilen	-14178
▁conviction	-14179
▁einbringen	-14180
▁finanziell	-14181
▁Freihandels	-14182
▁effizienter	-14183
▁integrierten	-14184
▁Lebensmitteln	-14185
▁8.	-14186
nelle	-14187
▁Kopf	-14188
▁sums	-14189
▁earth	-14190
▁flows	-14191
zahlung	-14192
▁Profit	-14193
▁Sprach	-14194
▁contra	-14195
ingehend	-14196
▁abolish	-14197
▁inquiry	-14198
schuldigen	-14199
▁Obergrenze	-14200
▁disastrous	-14201
▁dahingehend	-14202
▁eingeschränkt	-14203
70	-14204
ique	-14205
onym	-14206
rung	-14207
Plath	-14208
▁Komm	-14209
▁Merk	-14210
▁mouth	-14211
▁shoul	-14212
▁steel	-14213
ungsbef	-14214
zuheben	-14215
▁Lehren	-14216
▁kurzen	-14217
▁lokale	-14218
▁Certain	-14219
ländische	-14220
spektoren	-14221
▁Bewegung	-14222
▁Soldaten	-14223
▁anhalten	-14224
▁irrespon	-14225
bestimmung	-14226
▁Einnahmen	-14227
▁appalling	-14228
▁chemicals	-14229
▁Handlungen	-14230
▁existieren	-14231
▁Gesetzgeber	-14232
▁foundations	-14233
▁Gesichtspunkt	-14234
▁characterised	-14235
▁langfristigen	-14236
dden	-14237
lege	-14238
nism	-14239
ugnis	-14240
▁Ägyp	-14241
gewäss	-14242
sphase	-14243
▁größt	-14244
Ländern	-14245
tenance	-14246
zugehen	-14247
▁Friday	-14248
▁actors	-14249
[...]
